#include "magic_wand_model_data.h"


// We need to keep the data array aligned on some architectures.

#ifdef __has_attribute

#define HAVE_ATTRIBUTE(x) __has_attribute(x)

#else

#define HAVE_ATTRIBUTE(x) 0

#endif

#if HAVE_ATTRIBUTE(aligned) || (defined(__GNUC__) && !defined(__clang__))

#define DATA_ALIGN_ATTRIBUTE __attribute__((aligned(4)))

#else

#define DATA_ALIGN_ATTRIBUTE

#endif


const unsigned char g_magic_wand_model_data[] DATA_ALIGN_ATTRIBUTE = {
 
  0x08, 0x00, 0x00, 0x00, 0x54, 0x46, 0x4c, 0x33, 0x62, 0xff, 0xff, 0xff,
  0x03, 0x00, 0x00, 0x00, 0x10, 0x00, 0x00, 0x00, 0x24, 0x00, 0x00, 0x00,
  0x78, 0x00, 0x00, 0x00, 0x24, 0x00, 0x00, 0x00, 0x05, 0x00, 0x00, 0x00,
  0x78, 0x05, 0x00, 0x00, 0xb0, 0x04, 0x00, 0x00, 0xe0, 0x02, 0x00, 0x00,
  0x60, 0x02, 0x00, 0x00, 0x54, 0x01, 0x00, 0x00, 0x01, 0x00, 0x00, 0x00,
  0x78, 0x00, 0x00, 0x00, 0x13, 0x00, 0x00, 0x00, 0x18, 0x30, 0x00, 0x00,
  0x14, 0x30, 0x00, 0x00, 0x20, 0x2f, 0x00, 0x00, 0xa8, 0x2e, 0x00, 0x00,
  0x3c, 0x2e, 0x00, 0x00, 0xec, 0x11, 0x00, 0x00, 0x98, 0x10, 0x00, 0x00,
  0xbc, 0x0e, 0x00, 0x00, 0x60, 0x06, 0x00, 0x00, 0xfc, 0x05, 0x00, 0x00,
  0x78, 0x05, 0x00, 0x00, 0xec, 0x2f, 0x00, 0x00, 0xe8, 0x2f, 0x00, 0x00,
  0xe4, 0x2f, 0x00, 0x00, 0xe0, 0x2f, 0x00, 0x00, 0xdc, 0x2f, 0x00, 0x00,
  0xd8, 0x2f, 0x00, 0x00, 0xd4, 0x2f, 0x00, 0x00, 0xd0, 0x2f, 0x00, 0x00,
  0x0f, 0x00, 0x00, 0x00, 0x4d, 0x4c, 0x49, 0x52, 0x20, 0x43, 0x6f, 0x6e,
  0x76, 0x65, 0x72, 0x74, 0x65, 0x64, 0x2e, 0x00, 0x00, 0x00, 0x0e, 0x00,
  0x18, 0x00, 0x04, 0x00, 0x08, 0x00, 0x0c, 0x00, 0x10, 0x00, 0x14, 0x00,
  0x0e, 0x00, 0x00, 0x00, 0x14, 0x00, 0x00, 0x00, 0x5c, 0x00, 0x00, 0x00,
  0x60, 0x00, 0x00, 0x00, 0x64, 0x00, 0x00, 0x00, 0x84, 0x00, 0x00, 0x00,
  0x12, 0x00, 0x00, 0x00, 0x48, 0x2f, 0x00, 0x00, 0xe4, 0x2e, 0x00, 0x00,
  0x3c, 0x2e, 0x00, 0x00, 0xd8, 0x2d, 0x00, 0x00, 0x70, 0x2d, 0x00, 0x00,
  0x1c, 0x11, 0x00, 0x00, 0xc0, 0x0f, 0x00, 0x00, 0xe4, 0x0d, 0x00, 0x00,
  0xa0, 0x05, 0x00, 0x00, 0x3c, 0x05, 0x00, 0x00, 0xb0, 0x04, 0x00, 0x00,
  0xe8, 0x03, 0x00, 0x00, 0x38, 0x03, 0x00, 0x00, 0xa4, 0x02, 0x00, 0x00,
  0x10, 0x02, 0x00, 0x00, 0x90, 0x01, 0x00, 0x00, 0xfc, 0x00, 0x00, 0x00,
  0x80, 0x00, 0x00, 0x00, 0x01, 0x00, 0x00, 0x00, 0x00, 0x00, 0x00, 0x00,
  0x01, 0x00, 0x00, 0x00, 0x11, 0x00, 0x00, 0x00, 0x08, 0x00, 0x00, 0x00,
  0x1c, 0x04, 0x00, 0x00, 0x58, 0x03, 0x00, 0x00, 0xc8, 0x02, 0x00, 0x00,
  0x24, 0x02, 0x00, 0x00, 0xac, 0x01, 0x00, 0x00, 0x10, 0x01, 0x00, 0x00,
  0x94, 0x00, 0x00, 0x00, 0x10, 0x00, 0x00, 0x00, 0x04, 0x00, 0x00, 0x00,
  0x6d, 0x61, 0x69, 0x6e, 0x00, 0x00, 0x00, 0x00, 0x8e, 0xff, 0xff, 0xff,
  0x00, 0x00, 0x00, 0x09, 0x04, 0x00, 0x00, 0x00, 0x1c, 0x00, 0x00, 0x00,
  0x10, 0x00, 0x00, 0x00, 0x04, 0x00, 0x00, 0x00, 0x0a, 0xd2, 0xff, 0xff,
  0x00, 0x00, 0x80, 0x3f, 0x01, 0x00, 0x00, 0x00, 0x11, 0x00, 0x00, 0x00,
  0x01, 0x00, 0x00, 0x00, 0x10, 0x00, 0x00, 0x00, 0xf6, 0xfb, 0xff, 0xff,
  0x00, 0x00, 0x00, 0x19, 0x01, 0x00, 0x00, 0x00, 0x8a, 0xd1, 0xff, 0xff,
  0x10, 0x00, 0x00, 0x00, 0x12, 0x00, 0x00, 0x00, 0x14, 0x00, 0x00, 0x00,
  0x20, 0x00, 0x00, 0x00, 0x02, 0x00, 0x00, 0x00, 0x01, 0x00, 0x00, 0x00,
  0x04, 0x00, 0x00, 0x00, 0x08, 0x00, 0x00, 0x00, 0x49, 0x64, 0x65, 0x6e,
  0x74, 0x69, 0x74, 0x79, 0x00, 0x00, 0x00, 0x00, 0xc4, 0xd1, 0xff, 0xff,
  0x00, 0x00, 0x0e, 0x00, 0x18, 0x00, 0x08, 0x00, 0x0c, 0x00, 0x10, 0x00,
  0x07, 0x00, 0x14, 0x00, 0x0e, 0x00, 0x00, 0x00, 0x00, 0x00, 0x00, 0x08,
  0x03, 0x00, 0x00, 0x00, 0x18, 0x00, 0x00, 0x00, 0x0c, 0x00, 0x00, 0x00,
  0x04, 0x00, 0x00, 0x00, 0x98, 0xd1, 0xff, 0xff, 0x01, 0x00, 0x00, 0x00,
  0x10, 0x00, 0x00, 0x00, 0x03, 0x00, 0x00, 0x00, 0x0f, 0x00, 0x00, 0x00,
  0x05, 0x00, 0x00, 0x00, 0x02, 0x00, 0x00, 0x00, 0x02, 0xd2, 0xff, 0xff,
  0x10, 0x00, 0x00, 0x00, 0x11, 0x00, 0x00, 0x00, 0x14, 0x00, 0x00, 0x00,
  0x30, 0x00, 0x00, 0x00, 0x02, 0x00, 0x00, 0x00, 0x01, 0x00, 0x00, 0x00,
  0x04, 0x00, 0x00, 0x00, 0x1a, 0x00, 0x00, 0x00, 0x73, 0x65, 0x71, 0x75,
  0x65, 0x6e, 0x74, 0x69, 0x61, 0x6c, 0x2f, 0x64, 0x65, 0x6e, 0x73, 0x65,
  0x5f, 0x31, 0x2f, 0x42, 0x69, 0x61, 0x73, 0x41, 0x64, 0x64, 0x00, 0x00,
  0xf4, 0xd1, 0xff, 0xff, 0xd6, 0xfd, 0xff, 0xff, 0x00, 0x00, 0x00, 0x08,
  0x03, 0x00, 0x00, 0x00, 0x24, 0x00, 0x00, 0x00, 0x18, 0x00, 0x00, 0x00,
  0x0c, 0x00, 0x00, 0x00, 0x00, 0x00, 0x06, 0x00, 0x08, 0x00, 0x07, 0x00,
  0x06, 0x00, 0x00, 0x00, 0x00, 0x00, 0x00, 0x01, 0x01, 0x00, 0x00, 0x00,
  0x0f, 0x00, 0x00, 0x00, 0x03, 0x00, 0x00, 0x00, 0x0e, 0x00, 0x00, 0x00,
  0x04, 0x00, 0x00, 0x00, 0x01, 0x00, 0x00, 0x00, 0xfe, 0xfc, 0xff, 0xff,
  0x00, 0x00, 0x00, 0x09, 0x01, 0x00, 0x00, 0x00, 0x92, 0xd2, 0xff, 0xff,
  0x10, 0x00, 0x00, 0x00, 0x10, 0x00, 0x00, 0x00, 0x14, 0x00, 0x00, 0x00,
  0x2c, 0x00, 0x00, 0x00, 0x02, 0x00, 0x00, 0x00, 0x01, 0x00, 0x00, 0x00,
  0x10, 0x00, 0x00, 0x00, 0x15, 0x00, 0x00, 0x00, 0x73, 0x65, 0x71, 0x75,
  0x65, 0x6e, 0x74, 0x69, 0x61, 0x6c, 0x2f, 0x64, 0x65, 0x6e, 0x73, 0x65,
  0x2f, 0x52, 0x65, 0x6c, 0x75, 0x00, 0x00, 0x00, 0xd8, 0xd2, 0xff, 0xff,
  0x00, 0x00, 0x0a, 0x00, 0x10, 0x00, 0x04, 0x00, 0x08, 0x00, 0x0c, 0x00,
  0x0a, 0x00, 0x00, 0x00, 0x02, 0x00, 0x00, 0x00, 0x10, 0x00, 0x00, 0x00,
  0x04, 0x00, 0x00, 0x00, 0x01, 0x00, 0x00, 0x00, 0x0e, 0x00, 0x00, 0x00,
  0x02, 0x00, 0x00, 0x00, 0x0d, 0x00, 0x00, 0x00, 0x03, 0x00, 0x00, 0x00,
  0x7a, 0xfd, 0xff, 0xff, 0x00, 0x00, 0x00, 0x16, 0x01, 0x00, 0x00, 0x00,
  0x0e, 0xd3, 0xff, 0xff, 0x10, 0x00, 0x00, 0x00, 0x0f, 0x00, 0x00, 0x00,
  0x14, 0x00, 0x00, 0x00, 0x30, 0x00, 0x00, 0x00, 0x02, 0x00, 0x00, 0x00,
  0x01, 0x00, 0x00, 0x00, 0x70, 0x00, 0x00, 0x00, 0x1a, 0x00, 0x00, 0x00,
  0x73, 0x65, 0x71, 0x75, 0x65, 0x6e, 0x74, 0x69, 0x61, 0x6c, 0x2f, 0x66,
  0x6c, 0x61, 0x74, 0x74, 0x65, 0x6e, 0x2f, 0x52, 0x65, 0x73, 0x68, 0x61,
  0x70, 0x65, 0x00, 0x00, 0x00, 0xd3, 0xff, 0xff, 0xe2, 0xfe, 0xff, 0xff,
  0x00, 0x00, 0x00, 0x05, 0x01, 0x00, 0x00, 0x00, 0x38, 0x00, 0x00, 0x00,
  0x2c, 0x00, 0x00, 0x00, 0x14, 0x00, 0x00, 0x00, 0x00, 0x00, 0x0e, 0x00,
  0x14, 0x00, 0x00, 0x00, 0x10, 0x00, 0x0c, 0x00, 0x08, 0x00, 0x04, 0x00,
  0x0e, 0x00, 0x00, 0x00, 0x03, 0x00, 0x00, 0x00, 0x01, 0x00, 0x00, 0x00,
  0x03, 0x00, 0x00, 0x00, 0x01, 0x00, 0x00, 0x00, 0x01, 0x00, 0x00, 0x00,
  0x0d, 0x00, 0x00, 0x00, 0x01, 0x00, 0x00, 0x00, 0x0c, 0x00, 0x00, 0x00,
  0x9e, 0xd3, 0xff, 0xff, 0x10, 0x00, 0x00, 0x00, 0x0e, 0x00, 0x00, 0x00,
  0x1c, 0x00, 0x00, 0x00, 0x40, 0x00, 0x00, 0x00, 0x04, 0x00, 0x00, 0x00,
  0x01, 0x00, 0x00, 0x00, 0x07, 0x00, 0x00, 0x00, 0x01, 0x00, 0x00, 0x00,
  0x10, 0x00, 0x00, 0x00, 0x22, 0x00, 0x00, 0x00, 0x73, 0x65, 0x71, 0x75,
  0x65, 0x6e, 0x74, 0x69, 0x61, 0x6c, 0x2f, 0x6d, 0x61, 0x78, 0x5f, 0x70,
  0x6f, 0x6f, 0x6c, 0x69, 0x6e, 0x67, 0x32, 0x64, 0x5f, 0x31, 0x2f, 0x4d,
  0x61, 0x78, 0x50, 0x6f, 0x6f, 0x6c, 0x00, 0x00, 0xa0, 0xd3, 0xff, 0xff,
  0xc2, 0xfe, 0xff, 0xff, 0x00, 0x00, 0x00, 0x01, 0x24, 0x00, 0x00, 0x00,
  0x18, 0x00, 0x00, 0x00, 0x04, 0x00, 0x00, 0x00, 0xb4, 0xfe, 0xff, 0xff,
  0x01, 0x00, 0x00, 0x00, 0x01, 0x00, 0x00, 0x00, 0x00, 0x00, 0x00, 0x01,
  0x01, 0x00, 0x00, 0x00, 0x0c, 0x00, 0x00, 0x00, 0x03, 0x00, 0x00, 0x00,
  0x0b, 0x00, 0x00, 0x00, 0x07, 0x00, 0x00, 0x00, 0x09, 0x00, 0x00, 0x00,
  0x2e, 0xd4, 0xff, 0xff, 0x10, 0x00, 0x00, 0x00, 0x0d, 0x00, 0x00, 0x00,
  0x1c, 0x00, 0x00, 0x00, 0x2c, 0x00, 0x00, 0x00, 0x04, 0x00, 0x00, 0x00,
  0x01, 0x00, 0x00, 0x00, 0x15, 0x00, 0x00, 0x00, 0x01, 0x00, 0x00, 0x00,
  0x10, 0x00, 0x00, 0x00, 0x0c, 0x00, 0x00, 0x00, 0x74, 0x66, 0x6c, 0x2e,
  0x63, 0x6f, 0x6e, 0x76, 0x5f, 0x32, 0x64, 0x31, 0x00, 0x00, 0x00, 0x00,
  0x74, 0xd4, 0xff, 0xff, 0x00, 0x00, 0x0e, 0x00, 0x1a, 0x00, 0x08, 0x00,
  0x0c, 0x00, 0x10, 0x00, 0x07, 0x00, 0x14, 0x00, 0x0e, 0x00, 0x00, 0x00,
  0x00, 0x00, 0x00, 0x05, 0x01, 0x00, 0x00, 0x00, 0x3c, 0x00, 0x00, 0x00,
  0x30, 0x00, 0x00, 0x00, 0x14, 0x00, 0x00, 0x00, 0x00, 0x00, 0x0e, 0x00,
  0x18, 0x00, 0x17, 0x00, 0x10, 0x00, 0x0c, 0x00, 0x08, 0x00, 0x04, 0x00,
  0x0e, 0x00, 0x00, 0x00, 0x03, 0x00, 0x00, 0x00, 0x03, 0x00, 0x00, 0x00,
  0x03, 0x00, 0x00, 0x00, 0x03, 0x00, 0x00, 0x00, 0x00, 0x00, 0x00, 0x01,
  0x01, 0x00, 0x00, 0x00, 0x0b, 0x00, 0x00, 0x00, 0x01, 0x00, 0x00, 0x00,
  0x0a, 0x00, 0x00, 0x00, 0x46, 0xff, 0xff, 0xff, 0x00, 0x00, 0x00, 0x11,
  0x01, 0x00, 0x00, 0x00, 0xda, 0xd4, 0xff, 0xff, 0x10, 0x00, 0x00, 0x00,
  0x0c, 0x00, 0x00, 0x00, 0x1c, 0x00, 0x00, 0x00, 0x40, 0x00, 0x00, 0x00,
  0x04, 0x00, 0x00, 0x00, 0x01, 0x00, 0x00, 0x00, 0x15, 0x00, 0x00, 0x00,
  0x01, 0x00, 0x00, 0x00, 0x08, 0x00, 0x00, 0x00, 0x20, 0x00, 0x00, 0x00,
  0x73, 0x65, 0x71, 0x75, 0x65, 0x6e, 0x74, 0x69, 0x61, 0x6c, 0x2f, 0x6d,
  0x61, 0x78, 0x5f, 0x70, 0x6f, 0x6f, 0x6c, 0x69, 0x6e, 0x67, 0x32, 0x64,
  0x2f, 0x4d, 0x61, 0x78, 0x50, 0x6f, 0x6f, 0x6c, 0x00, 0x00, 0x00, 0x00,
  0x34, 0xd5, 0xff, 0xff, 0x00, 0x00, 0x0e, 0x00, 0x14, 0x00, 0x00, 0x00,
  0x08, 0x00, 0x0c, 0x00, 0x07, 0x00, 0x10, 0x00, 0x0e, 0x00, 0x00, 0x00,
  0x00, 0x00, 0x00, 0x01, 0x30, 0x00, 0x00, 0x00, 0x24, 0x00, 0x00, 0x00,
  0x10, 0x00, 0x00, 0x00, 0x0c, 0x00, 0x10, 0x00, 0x00, 0x00, 0x04, 0x00,
  0x08, 0x00, 0x0f, 0x00, 0x0c, 0x00, 0x00, 0x00, 0x01, 0x00, 0x00, 0x00,
  0x01, 0x00, 0x00, 0x00, 0x00, 0x00, 0x00, 0x01, 0x01, 0x00, 0x00, 0x00,
  0x0a, 0x00, 0x00, 0x00, 0x03, 0x00, 0x00, 0x00, 0x00, 0x00, 0x00, 0x00,
  0x06, 0x00, 0x00, 0x00, 0x08, 0x00, 0x00, 0x00, 0x00, 0x00, 0x0a, 0x00,
  0x0c, 0x00, 0x07, 0x00, 0x00, 0x00, 0x08, 0x00, 0x0a, 0x00, 0x00, 0x00,
  0x00, 0x00, 0x00, 0x03, 0x01, 0x00, 0x00, 0x00, 0x9e, 0xd5, 0xff, 0xff,
  0x10, 0x00, 0x00, 0x00, 0x0b, 0x00, 0x00, 0x00, 0x1c, 0x00, 0x00, 0x00,
  0x28, 0x00, 0x00, 0x00, 0x04, 0x00, 0x00, 0x00, 0x01, 0x00, 0x00, 0x00,
  0x40, 0x00, 0x00, 0x00, 0x03, 0x00, 0x00, 0x00, 0x08, 0x00, 0x00, 0x00,
  0x0b, 0x00, 0x00, 0x00, 0x74, 0x66, 0x6c, 0x2e, 0x63, 0x6f, 0x6e, 0x76,
  0x5f, 0x32, 0x64, 0x00, 0x88, 0xd5, 0xff, 0xff, 0x7e, 0xd6, 0xff, 0xff,
  0x04, 0x00, 0x00, 0x00, 0x40, 0x00, 0x00, 0x00, 0xc3, 0x23, 0x36, 0xbe,
  0x8d, 0x5f, 0xe8, 0xbe, 0x16, 0xf4, 0x13, 0xc0, 0x4e, 0x2b, 0x0c, 0xbe,
  0x1f, 0xc3, 0x8d, 0xbe, 0xea, 0xc7, 0x9a, 0xbc, 0x19, 0x33, 0x9d, 0xbf,
  0x85, 0x6e, 0x3b, 0xbe, 0x76, 0xab, 0x9e, 0x3f, 0x40, 0xca, 0xc3, 0xbe,
  0xba, 0x4c, 0xec, 0x3f, 0xf7, 0x95, 0xa1, 0x3d, 0x4b, 0x69, 0x3b, 0xc0,
  0x82, 0x99, 0x14, 0xbe, 0xd4, 0xce, 0xc4, 0xbf, 0x2f, 0x19, 0xbc, 0x3f,
  0x26, 0xd6, 0xff, 0xff, 0x10, 0x00, 0x00, 0x00, 0x0a, 0x00, 0x00, 0x00,
  0x10, 0x00, 0x00, 0x00, 0x20, 0x00, 0x00, 0x00, 0x01, 0x00, 0x00, 0x00,
  0x10, 0x00, 0x00, 0x00, 0x0d, 0x00, 0x00, 0x00, 0x73, 0x74, 0x64, 0x2e,
  0x63, 0x6f, 0x6e, 0x73, 0x74, 0x61, 0x6e, 0x74, 0x31, 0x00, 0x00, 0x00,
  0x08, 0xd6, 0xff, 0xff, 0xfe, 0xd6, 0xff, 0xff, 0x04, 0x00, 0x00, 0x00,
  0x20, 0x00, 0x00, 0x00, 0xba, 0xfb, 0x30, 0xbf, 0xdf, 0x9e, 0xb1, 0x3e,
  0xec, 0x2c, 0x05, 0x3e, 0x9e, 0xda, 0x28, 0xbf, 0xd5, 0x86, 0x9a, 0xbf,
  0xc2, 0x43, 0xa1, 0xbf, 0x24, 0x06, 0x34, 0xbb, 0xeb, 0xea, 0x86, 0xbf,
  0x86, 0xd6, 0xff, 0xff, 0x10, 0x00, 0x00, 0x00, 0x09, 0x00, 0x00, 0x00,
  0x10, 0x00, 0x00, 0x00, 0x20, 0x00, 0x00, 0x00, 0x01, 0x00, 0x00, 0x00,
  0x08, 0x00, 0x00, 0x00, 0x0c, 0x00, 0x00, 0x00, 0x73, 0x74, 0x64, 0x2e,
  0x63, 0x6f, 0x6e, 0x73, 0x74, 0x61, 0x6e, 0x74, 0x00, 0x00, 0x00, 0x00,
  0x68, 0xd6, 0xff, 0xff, 0x5e, 0xd7, 0xff, 0xff, 0x04, 0x00, 0x00, 0x00,
  0x00, 0x08, 0x00, 0x00, 0x73, 0x5f, 0x1c, 0x3e, 0x4a, 0x2a, 0xf1, 0xbd,
  0x1a, 0x5c, 0xa1, 0xbc, 0xb8, 0xcf, 0x6f, 0xbe, 0x9b, 0xd7, 0xb4, 0xbe,
  0xe6, 0x45, 0x79, 0xbe, 0xb9, 0xee, 0x41, 0xbd, 0x3e, 0xe7, 0xdc, 0xbe,
  0x2b, 0x91, 0x0a, 0x3f, 0x37, 0x91, 0x9d, 0x3d, 0x57, 0x2b, 0xea, 0xbb,
  0x5b, 0x51, 0xba, 0xbe, 0x24, 0x02, 0x6f, 0xbe, 0x01, 0xb6, 0x9c, 0x3d,
  0xf1, 0x17, 0xb6, 0xbd, 0x78, 0x10, 0x86, 0x3b, 0x24, 0xf9, 0x17, 0xbe,
  0xe7, 0x6f, 0x3a, 0x3d, 0x8a, 0x3d, 0x18, 0x3e, 0x85, 0x39, 0x75, 0xbd,
  0xec, 0xbd, 0x40, 0xbd, 0x6d, 0x98, 0x43, 0x3e, 0x25, 0x7f, 0x5d, 0x3d,
  0x97, 0xc1, 0x54, 0x3d, 0xaf, 0x39, 0x6b, 0x3e, 0x18, 0x3c, 0x37, 0x3e,
  0xb6, 0xf9, 0xa0, 0x3d, 0x8d, 0xd7, 0x82, 0xbd, 0x78, 0x24, 0x45, 0xbd,
  0x79, 0xe5, 0x0c, 0xbe, 0xb9, 0x06, 0xb7, 0x3c, 0x1a, 0xcd, 0x89, 0xbe,
  0x77, 0xd1, 0x57, 0x3e, 0x50, 0x06, 0x28, 0xbe, 0x54, 0x59, 0xb8, 0xbd,
  0x79, 0xe9, 0x94, 0xbe, 0xa2, 0x80, 0x92, 0xbe, 0x4a, 0x77, 0xd3, 0x3d,
  0xcd, 0x48, 0x46, 0xbe, 0x91, 0x91, 0x60, 0xbe, 0xb1, 0xef, 0x5b, 0x3e,
  0x9c, 0xf5, 0x06, 0xbe, 0x24, 0x3f, 0x6e, 0xbd, 0x98, 0xcf, 0x5d, 0xbe,
  0x3d, 0x97, 0x0b, 0xbe, 0x9e, 0xc4, 0xa6, 0x3e, 0x1b, 0xce, 0x5e, 0x3e,
  0x3b, 0x69, 0x1d, 0xbd, 0x99, 0x71, 0xfd, 0x3d, 0x39, 0x18, 0x12, 0xbe,
  0xce, 0x81, 0xcf, 0xbe, 0x4e, 0xd1, 0x49, 0xbd, 0x09, 0x4e, 0x2b, 0xbe,
  0x17, 0xba, 0x0b, 0xbf, 0x23, 0x53, 0x82, 0xbe, 0x8a, 0xeb, 0x29, 0xbf,
  0x85, 0xa2, 0x16, 0x3d, 0x78, 0xce, 0xdb, 0x3c, 0x14, 0xf9, 0xd9, 0xbe,
  0x0c, 0x42, 0xab, 0xbe, 0xe0, 0x96, 0xc0, 0xbd, 0xf1, 0xf0, 0x3d, 0xbe,
  0x64, 0xd9, 0x01, 0xbe, 0x13, 0x7f, 0x0d, 0xbf, 0xcb, 0xca, 0xca, 0xbd,
  0x75, 0x5a, 0x89, 0xbd, 0x39, 0xfb, 0x6d, 0xbe, 0x6b, 0x4c, 0x42, 0xbd,
  0xdd, 0xf1, 0xad, 0xbd, 0x8c, 0xb1, 0xef, 0xbe, 0x23, 0xca, 0xc2, 0xbc,
  0x4d, 0x3f, 0x9a, 0xbe, 0xf9, 0xfa, 0x27, 0xbe, 0xa7, 0x19, 0xc5, 0xbd,
  0x0b, 0x74, 0x70, 0xbe, 0x9e, 0xdc, 0x80, 0xbd, 0xc8, 0xcf, 0xaf, 0xbd,
  0xf6, 0x9e, 0x55, 0xbe, 0x06, 0x14, 0x80, 0xbd, 0x7b, 0xb2, 0xc9, 0xbd,
  0x60, 0x07, 0x94, 0xbe, 0xe9, 0x9b, 0xff, 0x3c, 0x4d, 0x34, 0x20, 0xbe,
  0x73, 0xb4, 0x45, 0xbd, 0xa5, 0xfd, 0x14, 0xbd, 0x2c, 0x84, 0xc1, 0x3e,
  0xb7, 0xa4, 0x8e, 0x3d, 0xe9, 0xd0, 0x85, 0x3e, 0xcc, 0x89, 0x1d, 0x3e,
  0x53, 0xdc, 0xb4, 0x3d, 0x53, 0xee, 0x13, 0xbe, 0xd2, 0xa3, 0xd5, 0x3d,
  0x55, 0x98, 0x71, 0x3e, 0xa6, 0x54, 0xdc, 0x3e, 0xe1, 0x11, 0x8a, 0x3c,
  0x00, 0xb6, 0x2f, 0x3e, 0xe4, 0x7e, 0xb9, 0xbe, 0xd3, 0x0b, 0x6d, 0xbe,
  0xf4, 0x64, 0x7a, 0xbe, 0xd0, 0x96, 0x60, 0xbe, 0x26, 0x1e, 0x21, 0xbe,
  0x0c, 0x37, 0x57, 0x3d, 0x01, 0x3d, 0x33, 0xbe, 0x5b, 0x8a, 0x5f, 0x3d,
  0x3e, 0x5c, 0x1e, 0x3d, 0x4f, 0xd9, 0xae, 0x3e, 0x00, 0x35, 0xa7, 0xbd,
  0xc5, 0x42, 0x83, 0xbe, 0x48, 0x83, 0x80, 0xbe, 0x58, 0x67, 0xc6, 0xbe,
  0xeb, 0x3e, 0x1d, 0xbf, 0x35, 0x86, 0xe9, 0xbd, 0xe5, 0x52, 0x9d, 0x3d,
  0xdb, 0xad, 0x2f, 0xbe, 0x6a, 0xfc, 0x06, 0xbe, 0x98, 0x9d, 0xb1, 0xbe,
  0x73, 0xe1, 0x0a, 0xbe, 0x35, 0xac, 0xa2, 0x3d, 0x09, 0x1d, 0x0e, 0xbe,
  0x5e, 0x87, 0xa4, 0x3e, 0x3b, 0x46, 0x6e, 0x3d, 0x74, 0x26, 0xde, 0xbd,
  0x79, 0xa6, 0x80, 0x3b, 0xb9, 0xf1, 0xa6, 0xbc, 0x6f, 0x9c, 0xd0, 0x3c,
  0x7d, 0xfe, 0x81, 0x3e, 0xbf, 0xc4, 0x6e, 0x3e, 0x26, 0x58, 0x73, 0x3e,
  0x41, 0x7a, 0x1a, 0xbe, 0xee, 0x61, 0xba, 0xbe, 0xc6, 0x5a, 0x84, 0xbd,
  0xde, 0xd8, 0x93, 0xbd, 0xa2, 0x28, 0xa5, 0xbd, 0xf2, 0x4c, 0xce, 0x3e,
  0x07, 0xba, 0xa3, 0xbe, 0xe4, 0xea, 0x4c, 0x3f, 0x81, 0x2f, 0x38, 0x3e,
  0x0e, 0x3d, 0x31, 0xbf, 0xba, 0x6b, 0x96, 0xbb, 0xfe, 0x29, 0xaa, 0x3c,
  0x8a, 0xc9, 0x7c, 0x3c, 0x17, 0x18, 0xbb, 0xbe, 0x3e, 0x4e, 0x3f, 0xbf,
  0x7e, 0x12, 0x37, 0xbf, 0xea, 0x26, 0xea, 0x3e, 0x41, 0x16, 0xe5, 0xbe,
  0xda, 0xab, 0xec, 0x3c, 0x86, 0x45, 0x38, 0xbc, 0x76, 0x14, 0x8b, 0xbc,
  0x39, 0x63, 0xa1, 0xbe, 0xe2, 0x59, 0x16, 0xbf, 0xf8, 0xd9, 0x22, 0xbe,
  0xcd, 0xa0, 0xad, 0x39, 0x84, 0xc5, 0x36, 0xbf, 0xb8, 0x5e, 0xde, 0x3b,
  0x66, 0xca, 0xaa, 0xbc, 0x7e, 0x03, 0xc8, 0xbc, 0x38, 0x8b, 0x08, 0x3f,
  0xa6, 0x24, 0x1d, 0xbf, 0x24, 0xe2, 0xde, 0x3d, 0xfe, 0xe1, 0x02, 0xbd,
  0xea, 0xef, 0xac, 0x3d, 0x43, 0xc1, 0x01, 0xbe, 0xc7, 0x6b, 0x7d, 0xbe,
  0x6d, 0x41, 0x24, 0xbe, 0x10, 0xe1, 0x0e, 0x3e, 0xd0, 0x11, 0x2a, 0x3e,
  0xe5, 0x03, 0x0d, 0x3e, 0x7b, 0x68, 0xc1, 0x3d, 0x3f, 0xf8, 0x29, 0xbd,
  0x0e, 0x1d, 0x2c, 0xbe, 0xd3, 0xfb, 0x7a, 0xbe, 0x03, 0xa0, 0x2b, 0xbe,
  0xaf, 0xe8, 0xb1, 0x3c, 0xff, 0x2e, 0x10, 0x3c, 0x4b, 0xac, 0x90, 0x3e,
  0x81, 0xef, 0x1e, 0x3f, 0x9a, 0x08, 0x94, 0xbd, 0x53, 0x61, 0xaf, 0xbd,
  0x53, 0xf8, 0x6d, 0xbe, 0xe2, 0x11, 0x0e, 0xbe, 0xd5, 0x2c, 0xa0, 0x3d,
  0x38, 0xf1, 0xa5, 0xbd, 0x19, 0xbb, 0x0e, 0x3e, 0x76, 0x87, 0xca, 0xbd,
  0x65, 0xa3, 0xc9, 0x3d, 0xd7, 0x8c, 0xea, 0xbd, 0x14, 0x63, 0x48, 0xbe,
  0x50, 0x7b, 0xc6, 0xbd, 0x9d, 0x4f, 0xa7, 0x3d, 0x56, 0x97, 0x92, 0x3d,
  0x38, 0x40, 0x3e, 0x3e, 0x2a, 0x9c, 0x3a, 0x3e, 0x43, 0x98, 0x5c, 0x3e,
  0xa5, 0x03, 0xb8, 0xbc, 0x3f, 0xcf, 0xde, 0xbe, 0xb8, 0xd1, 0xde, 0xbe,
  0x53, 0x43, 0x16, 0xbe, 0x4f, 0x76, 0x04, 0xbe, 0x47, 0x43, 0xaf, 0xbe,
  0x13, 0x18, 0x4e, 0x3e, 0x14, 0xf8, 0xd7, 0xbd, 0x1c, 0xbc, 0x98, 0xbe,
  0x87, 0x03, 0x3e, 0xbf, 0xd3, 0x3b, 0x03, 0xbf, 0x54, 0x99, 0xa1, 0xbb,
  0xf3, 0x1c, 0xaa, 0xbe, 0x2a, 0xf9, 0xb9, 0x3e, 0xf9, 0x03, 0x8b, 0xbe,
  0xfd, 0x5d, 0x94, 0xbd, 0xe3, 0x49, 0x11, 0xbe, 0x33, 0xb8, 0x79, 0xbd,
  0x7b, 0xb3, 0xd1, 0x3c, 0xd7, 0xf1, 0x1d, 0x3e, 0x21, 0x0b, 0x1f, 0x3d,
  0x29, 0x95, 0x79, 0x3e, 0x77, 0x88, 0x24, 0x3e, 0xb7, 0xd4, 0x72, 0xbd,
  0x95, 0xad, 0xf9, 0xbd, 0x30, 0xb3, 0xcd, 0x3d, 0x8d, 0x49, 0x3d, 0x3d,
  0x6c, 0xdd, 0x45, 0xba, 0x58, 0x47, 0x49, 0x3d, 0xcb, 0x24, 0xd9, 0x3c,
  0xe0, 0x41, 0x96, 0x3d, 0x3f, 0x83, 0x61, 0xbd, 0xe2, 0x0c, 0xf8, 0xbd,
  0x64, 0x87, 0xa0, 0xbe, 0xc8, 0xba, 0xb5, 0xbe, 0x16, 0xcb, 0x20, 0xbb,
  0x3b, 0xb3, 0xd5, 0xbd, 0xac, 0x1b, 0x64, 0xbe, 0x42, 0x08, 0x8d, 0xbd,
  0xa5, 0x5c, 0x85, 0xbd, 0xf5, 0x74, 0x73, 0x3e, 0x34, 0x31, 0x27, 0xbe,
  0x7a, 0x1b, 0x26, 0xbe, 0x39, 0x4f, 0xed, 0x3c, 0x12, 0x79, 0xa6, 0x3d,
  0x81, 0xb3, 0xa8, 0x3e, 0x90, 0x95, 0x53, 0xbe, 0x9b, 0x53, 0x50, 0x3d,
  0x1f, 0xfc, 0x5b, 0x3e, 0x84, 0x29, 0x1b, 0xbe, 0xec, 0xfe, 0x12, 0xbe,
  0x2c, 0x27, 0x70, 0xbd, 0x83, 0x79, 0x23, 0x3d, 0x3b, 0x1f, 0xa4, 0x3b,
  0x0d, 0x94, 0xec, 0xbc, 0x89, 0x3f, 0x81, 0x3e, 0x62, 0x6e, 0x34, 0x3e,
  0xf5, 0xa7, 0x5a, 0xbd, 0xbc, 0xb1, 0x39, 0xbd, 0x8c, 0x35, 0x9e, 0x3d,
  0x94, 0x27, 0x9f, 0x3e, 0xb9, 0x6d, 0xb5, 0x3d, 0x6a, 0xf5, 0xa4, 0x3b,
  0x68, 0xf1, 0x1a, 0xbe, 0x01, 0x33, 0x84, 0xbc, 0xb0, 0x82, 0xd6, 0x3d,
  0xb1, 0xa1, 0x95, 0xbd, 0x0a, 0x4b, 0x8a, 0xbe, 0xe0, 0x46, 0x5e, 0x3d,
  0x36, 0x40, 0x96, 0xbe, 0xda, 0xe6, 0x14, 0xbd, 0xe7, 0xbd, 0xcd, 0xbd,
  0xf0, 0xf7, 0x0d, 0x3b, 0xbd, 0x6e, 0x1f, 0x3e, 0xa1, 0xf5, 0xee, 0x3d,
  0x92, 0x28, 0x96, 0xbb, 0xfc, 0xb4, 0xc2, 0xbd, 0x9b, 0x4c, 0x3d, 0xbe,
  0x46, 0x94, 0x88, 0xbd, 0x58, 0x64, 0x9d, 0xbd, 0x2b, 0x38, 0x9b, 0xbd,
  0xbe, 0xbf, 0x61, 0xbd, 0x25, 0xea, 0x45, 0x3d, 0x01, 0x81, 0x6c, 0xbe,
  0x45, 0xad, 0x2c, 0xbc, 0xab, 0xdb, 0x92, 0xbc, 0xf5, 0xd3, 0x1d, 0x3e,
  0x65, 0x6c, 0xca, 0x3d, 0xbd, 0xa9, 0xd7, 0x3d, 0xe1, 0x17, 0xc3, 0x3c,
  0x50, 0x10, 0x24, 0x3d, 0xaa, 0xb5, 0x76, 0x3e, 0x5d, 0x79, 0xe7, 0x3d,
  0xa0, 0x74, 0xa8, 0x3d, 0x28, 0xcb, 0x17, 0xbf, 0x4d, 0xc3, 0x56, 0xbf,
  0x20, 0xea, 0x75, 0x3e, 0x0c, 0x16, 0x71, 0x3d, 0x12, 0x0c, 0x82, 0xbd,
  0xf2, 0xc0, 0x65, 0x3e, 0xad, 0x2b, 0x23, 0xbf, 0x3d, 0x8d, 0x48, 0x3f,
  0xd5, 0x37, 0x6b, 0xbe, 0x3b, 0x1b, 0x14, 0xbe, 0xc7, 0x9b, 0xec, 0x3d,
  0x81, 0x53, 0xef, 0xbd, 0xb2, 0x6a, 0xbe, 0xbd, 0xaa, 0x2e, 0xb4, 0x3e,
  0x4d, 0x3d, 0x23, 0xbf, 0xd3, 0x70, 0x22, 0x3e, 0x94, 0xc7, 0x5c, 0xbd,
  0xa5, 0x69, 0x5a, 0xbf, 0x6a, 0x55, 0xa1, 0xbd, 0x5f, 0x6b, 0xa3, 0xbd,
  0xbe, 0x4d, 0xda, 0xbd, 0xae, 0x7d, 0x3a, 0x3e, 0x45, 0x88, 0xed, 0xbe,
  0xfa, 0x60, 0x88, 0x3e, 0x4e, 0x9c, 0x31, 0x3e, 0x94, 0x8b, 0x17, 0xbf,
  0xea, 0xec, 0x3b, 0xbd, 0x10, 0x9e, 0xd8, 0xbd, 0xad, 0xeb, 0x9b, 0xbd,
  0x04, 0x12, 0xbf, 0x3d, 0x19, 0xc9, 0xe2, 0xbe, 0xa4, 0xc4, 0x1a, 0x3e,
  0xd4, 0x92, 0x64, 0x3e, 0x47, 0x7a, 0xe7, 0x3e, 0xc9, 0x16, 0xc1, 0xbd,
  0x1e, 0x56, 0x86, 0xbe, 0x9c, 0x8f, 0x7f, 0xbe, 0xd7, 0x21, 0x9d, 0x3c,
  0x65, 0xe3, 0x30, 0xbe, 0x85, 0xbd, 0x44, 0x3e, 0xf1, 0xf8, 0x72, 0x3e,
  0xb7, 0x74, 0x1d, 0xbe, 0x4a, 0x0c, 0x27, 0xbe, 0xe4, 0x9a, 0xe1, 0xbe,
  0x2d, 0x2e, 0xc0, 0xbe, 0x66, 0x82, 0xd6, 0x3c, 0x0b, 0xbc, 0x1d, 0xbe,
  0xae, 0xbb, 0x58, 0x3e, 0x18, 0x46, 0xf2, 0xbd, 0xbf, 0xa9, 0x0d, 0xbe,
  0xd0, 0x30, 0x1f, 0x3d, 0x74, 0x95, 0x42, 0xbe, 0xfc, 0x61, 0x09, 0xbe,
  0x56, 0x97, 0xf9, 0x3e, 0xb5, 0x2f, 0x86, 0x3e, 0x05, 0xe6, 0x94, 0x3d,
  0xed, 0xae, 0x2b, 0xbd, 0xf7, 0x21, 0xf1, 0x3d, 0x72, 0x87, 0x02, 0x3d,
  0x85, 0x12, 0x4c, 0xbd, 0xd5, 0x8a, 0x04, 0xbe, 0x9d, 0xc2, 0x20, 0x3e,
  0x87, 0xa1, 0xee, 0xbc, 0xbe, 0x93, 0x6f, 0x3e, 0xdc, 0x13, 0x7b, 0xbe,
  0xae, 0xf0, 0x4f, 0x3c, 0xb8, 0x43, 0x38, 0xbe, 0x17, 0x42, 0x98, 0xbd,
  0xb9, 0x24, 0x14, 0x3e, 0xcd, 0xbf, 0xce, 0xbd, 0x60, 0xb7, 0x92, 0xbe,
  0x3c, 0x5b, 0x2c, 0x3d, 0x73, 0x22, 0x06, 0x3e, 0x67, 0x77, 0xf5, 0xbc,
  0x1a, 0x23, 0xa3, 0xbe, 0x9f, 0x4d, 0x99, 0x3e, 0x17, 0xdf, 0xa7, 0xbd,
  0xe0, 0xd8, 0x02, 0x3d, 0xe0, 0xa7, 0x40, 0xbe, 0xc0, 0xde, 0x5e, 0x3c,
  0xc2, 0x91, 0x2b, 0xbe, 0xa6, 0xa8, 0x97, 0xbc, 0x5f, 0x51, 0xae, 0xbe,
  0x6b, 0x90, 0x9e, 0xbd, 0x09, 0xed, 0x21, 0x3d, 0x55, 0x5d, 0x8c, 0xbd,
  0xb8, 0x67, 0x48, 0xbe, 0x95, 0x62, 0xd6, 0xbd, 0x3d, 0x90, 0x23, 0xbd,
  0xe3, 0x3a, 0xac, 0x3d, 0x1c, 0xf9, 0x74, 0xbe, 0x4b, 0x41, 0xd7, 0x3d,
  0x26, 0x4e, 0x2a, 0x3e, 0xee, 0xa2, 0x85, 0x3c, 0xf0, 0xcf, 0x2c, 0xbe,
  0x0b, 0x36, 0xb7, 0xbd, 0x4b, 0xfa, 0xbf, 0xbe, 0xd0, 0xc4, 0xe1, 0x3c,
  0xe6, 0xbf, 0x97, 0xbe, 0x1b, 0xd2, 0x4b, 0xbd, 0x84, 0x23, 0xa9, 0xbd,
  0x74, 0x49, 0x14, 0x3b, 0x68, 0xc5, 0xf4, 0x3b, 0x8c, 0xfc, 0x87, 0x3e,
  0x53, 0x3f, 0x62, 0xbe, 0xb5, 0x27, 0x28, 0x3c, 0x67, 0x8f, 0x98, 0xbe,
  0x3c, 0x74, 0x90, 0xbd, 0xb4, 0x36, 0x06, 0x3f, 0xf6, 0xbe, 0xda, 0x3c,
  0x2d, 0x4b, 0xf6, 0xbc, 0x7d, 0x46, 0x7e, 0xbd, 0x65, 0x24, 0x32, 0x3e,
  0x99, 0xa1, 0x34, 0x3d, 0x33, 0xbf, 0x23, 0xbe, 0xc1, 0x30, 0x5c, 0xbd,
  0x90, 0x67, 0x97, 0xbd, 0x2b, 0xf5, 0xca, 0x3e, 0x3d, 0xf9, 0xcf, 0xbd,
  0xfe, 0x97, 0xcc, 0xbd, 0x83, 0x5e, 0x4b, 0x3e, 0x35, 0xbf, 0x31, 0xbd,
  0xae, 0x93, 0xd8, 0xbd, 0x60, 0x0f, 0x93, 0xbd, 0x0a, 0x9e, 0xa9, 0xbd,
  0xa9, 0xc0, 0x05, 0xbf, 0xf7, 0x78, 0xf5, 0xbd, 0x1e, 0x30, 0xab, 0xbe,
  0xa7, 0xfc, 0xb1, 0x3e, 0x84, 0x8a, 0x84, 0x3e, 0x7f, 0xc1, 0x1c, 0xbd,
  0xd3, 0x47, 0xc5, 0x3c, 0xc9, 0xa9, 0xd5, 0x3d, 0x39, 0x8b, 0x2e, 0x3e,
  0xe9, 0xff, 0xe0, 0xbd, 0x43, 0xf0, 0x81, 0xbe, 0xfa, 0x21, 0x13, 0xbe,
  0xb4, 0x04, 0xf2, 0x38, 0x87, 0xa4, 0x39, 0xbe, 0x1a, 0xf6, 0xc4, 0xbd,
  0x61, 0x70, 0x18, 0xbe, 0x26, 0xeb, 0x41, 0xbf, 0x02, 0xbe, 0x71, 0xbe,
  0xb3, 0x80, 0xae, 0xbe, 0xd0, 0xde, 0xad, 0x3d, 0xd1, 0xb7, 0xf8, 0x3d,
  0xd3, 0x49, 0xe2, 0xbd, 0x9f, 0x13, 0x63, 0xbe, 0x3f, 0x0c, 0xb4, 0xbe,
  0x08, 0xd0, 0x75, 0xbd, 0x6e, 0xd2, 0x5c, 0xbd, 0x68, 0xf2, 0xb3, 0x3d,
  0x35, 0x7e, 0x63, 0x3e, 0xed, 0x41, 0x52, 0xbe, 0x53, 0xc6, 0x80, 0xbd,
  0x83, 0xa9, 0xd4, 0x3b, 0xe1, 0x37, 0x98, 0xbe, 0xdb, 0x9f, 0xc3, 0xbd,
  0xfd, 0x16, 0x81, 0xbc, 0x1b, 0xe6, 0x0b, 0xbc, 0xef, 0x19, 0xdc, 0x3d,
  0x33, 0x24, 0x16, 0x3f, 0xb1, 0x94, 0x24, 0xbe, 0x98, 0xfb, 0xfc, 0xbc,
  0x4c, 0xc8, 0x36, 0x3e, 0x89, 0xaa, 0xc7, 0x3c, 0x70, 0x7e, 0xe9, 0xbd,
  0xa6, 0x11, 0x21, 0x3c, 0xb1, 0x44, 0xe1, 0x3d, 0xf7, 0x8a, 0xb9, 0xbd,
  0x42, 0x50, 0x61, 0xbe, 0xfb, 0x96, 0xb6, 0xbd, 0x9f, 0x56, 0x9d, 0xbd,
  0x40, 0x0f, 0x6f, 0xbd, 0x3b, 0x5f, 0x25, 0xbe, 0xc7, 0xe0, 0x37, 0xbe,
  0x8a, 0x5f, 0x3d, 0x3e, 0x64, 0x70, 0x88, 0xbd, 0x88, 0xfe, 0x9f, 0xbd,
  0xa6, 0x07, 0x62, 0xbd, 0x77, 0x8f, 0x9a, 0xbd, 0x68, 0xd7, 0x5d, 0x3c,
  0x92, 0x12, 0x94, 0xbd, 0x7f, 0x81, 0xc6, 0xbd, 0xa2, 0x0b, 0x4d, 0x3d,
  0x98, 0x7c, 0xef, 0xbd, 0x3f, 0x0e, 0x5f, 0x3c, 0x36, 0x68, 0xb5, 0xbd,
  0xb5, 0x21, 0xa6, 0xbd, 0x35, 0x23, 0x53, 0xbe, 0x30, 0xe2, 0xd4, 0xbc,
  0xa7, 0x62, 0xd2, 0xbd, 0xfb, 0x50, 0x48, 0x3b, 0x37, 0x35, 0x5b, 0x3f,
  0x32, 0xf1, 0xd3, 0x3c, 0x82, 0x03, 0x64, 0xbd, 0x8e, 0xd7, 0x97, 0xbe,
  0xd1, 0x4d, 0xce, 0x3d, 0xff, 0xeb, 0x34, 0xbd, 0xaf, 0x4c, 0xda, 0xbd,
  0x1c, 0xdf, 0xf7, 0xbd, 0x23, 0xfa, 0x8b, 0xbe, 0x34, 0xb5, 0xd4, 0x3c,
  0x25, 0xfc, 0xa2, 0xbe, 0xc6, 0x67, 0xc2, 0xbe, 0xd6, 0xb7, 0xc6, 0x3e,
  0xe7, 0x8e, 0x73, 0xbe, 0x9e, 0xa6, 0x87, 0x3e, 0xa5, 0x42, 0x1a, 0xbd,
  0xed, 0x49, 0xfb, 0xbe, 0x2e, 0xc4, 0x5c, 0x3e, 0x84, 0x3e, 0x74, 0xbe,
  0xd0, 0xab, 0xda, 0xbe, 0xb0, 0x51, 0x6e, 0x3d, 0x8d, 0x4c, 0xc2, 0xbe,
  0xf3, 0x2d, 0x8a, 0x3d, 0x19, 0x1a, 0x93, 0xbd, 0x95, 0x07, 0xcd, 0xbe,
  0x9e, 0x6a, 0xce, 0xbd, 0x98, 0xfc, 0x10, 0xbf, 0xf9, 0x86, 0x43, 0xbf,
  0xed, 0x65, 0xb6, 0xbc, 0x14, 0xe2, 0x3f, 0xbe, 0x75, 0x06, 0x53, 0xbd,
  0xc6, 0xde, 0xff, 0xff, 0x10, 0x00, 0x00, 0x00, 0x08, 0x00, 0x00, 0x00,
  0x1c, 0x00, 0x00, 0x00, 0x38, 0x00, 0x00, 0x00, 0x04, 0x00, 0x00, 0x00,
  0x10, 0x00, 0x00, 0x00, 0x04, 0x00, 0x00, 0x00, 0x01, 0x00, 0x00, 0x00,
  0x08, 0x00, 0x00, 0x00, 0x1a, 0x00, 0x00, 0x00, 0x73, 0x65, 0x71, 0x75,
  0x65, 0x6e, 0x74, 0x69, 0x61, 0x6c, 0x2f, 0x63, 0x6f, 0x6e, 0x76, 0x32,
  0x64, 0x5f, 0x31, 0x2f, 0x43, 0x6f, 0x6e, 0x76, 0x32, 0x44, 0x00, 0x00,
  0xc0, 0xde, 0xff, 0xff, 0xb6, 0xdf, 0xff, 0xff, 0x04, 0x00, 0x00, 0x00,
  0x80, 0x01, 0x00, 0x00, 0x0b, 0x7b, 0x3c, 0xbe, 0xfc, 0xc3, 0xf2, 0xbe,
  0xec, 0xc5, 0xd4, 0xbd, 0xa6, 0x7a, 0xd2, 0xbd, 0x42, 0xba, 0x87, 0xbd,
  0xd6, 0x45, 0xa0, 0xbe, 0xc6, 0x81, 0x7a, 0x3e, 0x4c, 0x01, 0x16, 0x3e,
  0x55, 0x21, 0xf7, 0x3d, 0xdf, 0xdd, 0x91, 0x3d, 0xd3, 0x73, 0x84, 0x3e,
  0xe6, 0x84, 0x66, 0x3e, 0x30, 0xe2, 0x01, 0x3e, 0x33, 0x71, 0xb5, 0xbe,
  0xa5, 0x90, 0xd7, 0xbc, 0x4a, 0x56, 0x03, 0x3e, 0x5d, 0x26, 0xc8, 0xbe,
  0x11, 0x48, 0x79, 0xbe, 0xa9, 0xf8, 0xe7, 0xbc, 0x67, 0xfe, 0x24, 0x3e,
  0x73, 0x4e, 0x3d, 0x3d, 0x80, 0xc3, 0xec, 0xbe, 0xf0, 0xa4, 0x67, 0x3e,
  0x4b, 0x3c, 0xce, 0x3d, 0xf5, 0x3d, 0x12, 0xbe, 0x21, 0x96, 0xe7, 0xbd,
  0x4f, 0xdd, 0x70, 0x3d, 0x41, 0x74, 0x6d, 0x3e, 0x81, 0xf9, 0xa1, 0xbd,
  0x8a, 0x3b, 0x37, 0x3d, 0xb4, 0x60, 0x5b, 0xbd, 0x0b, 0xc0, 0x8b, 0xbd,
  0x46, 0x64, 0xd9, 0xbb, 0x54, 0x9c, 0x3d, 0x3e, 0x6f, 0x4d, 0x62, 0x3d,
  0x0c, 0x66, 0x3c, 0xbe, 0x03, 0x93, 0x68, 0xbd, 0x84, 0x3b, 0x6a, 0xbe,
  0x0a, 0x5e, 0x2c, 0xbe, 0x6a, 0xc3, 0xfb, 0xbd, 0x55, 0x65, 0xae, 0xbd,
  0xbe, 0xfc, 0x3e, 0x3e, 0x5b, 0xf3, 0xf7, 0xbc, 0x75, 0x78, 0x82, 0xbd,
  0x75, 0x84, 0x9c, 0x3d, 0x20, 0x78, 0xb5, 0xbc, 0xbf, 0x7f, 0x12, 0xbe,
  0xec, 0x84, 0x4d, 0x3d, 0x37, 0xb2, 0x89, 0x3d, 0xaf, 0xa5, 0x61, 0xbe,
  0x57, 0x1d, 0xd7, 0xbb, 0x5e, 0xe6, 0xae, 0x3c, 0xef, 0x4a, 0x84, 0xbe,
  0xcf, 0xae, 0x5d, 0xbd, 0x81, 0xf5, 0x49, 0xbe, 0xba, 0xc6, 0xd0, 0xbd,
  0x2a, 0x20, 0x80, 0x3d, 0x9e, 0x57, 0x79, 0xbe, 0x7a, 0xe5, 0x9f, 0x3d,
  0x01, 0x31, 0x00, 0x3e, 0x78, 0x16, 0x59, 0x3e, 0xfa, 0x7b, 0xd3, 0x3e,
  0xab, 0x8a, 0x41, 0xbd, 0x01, 0xf3, 0x0b, 0xbd, 0xa6, 0x2a, 0x6e, 0x3d,
  0x03, 0xbf, 0x14, 0x3e, 0x9a, 0x69, 0x21, 0xbe, 0xd7, 0x50, 0xee, 0xbe,
  0x8a, 0x4e, 0x53, 0xbe, 0xdd, 0x3f, 0x1f, 0xbc, 0x99, 0x99, 0x93, 0xbd,
  0x39, 0x6c, 0x31, 0x3d, 0xe6, 0xba, 0x8e, 0xbd, 0x2a, 0x3e, 0xb9, 0x3d,
  0xd2, 0x5c, 0x2d, 0x3e, 0x14, 0xc7, 0xd6, 0x3d, 0x80, 0x84, 0xb5, 0xbd,
  0xe4, 0xcc, 0x1e, 0xbc, 0xec, 0x0b, 0xaf, 0xbd, 0x77, 0x7a, 0x1f, 0xbe,
  0x98, 0xc6, 0xc7, 0xbe, 0x4a, 0xb9, 0x87, 0xbd, 0x00, 0x02, 0x33, 0x3d,
  0x8c, 0xba, 0x93, 0xbe, 0x42, 0x70, 0x0e, 0xbb, 0xb1, 0x87, 0xcb, 0x3e,
  0x18, 0xe5, 0x22, 0x3e, 0xb0, 0x35, 0x6d, 0x3e, 0xd5, 0xb2, 0x26, 0xbc,
  0xaa, 0x4d, 0x04, 0x3e, 0x36, 0xef, 0x66, 0xbe, 0xbf, 0x4e, 0xbe, 0x3a,
  0x4b, 0xa6, 0x1a, 0x3e, 0x3c, 0x14, 0xbf, 0xbd, 0x45, 0x66, 0xba, 0xbe,
  0xad, 0xf0, 0xf6, 0xbe, 0x9e, 0xe0, 0xff, 0xff, 0x10, 0x00, 0x00, 0x00,
  0x07, 0x00, 0x00, 0x00, 0x1c, 0x00, 0x00, 0x00, 0x38, 0x00, 0x00, 0x00,
  0x04, 0x00, 0x00, 0x00, 0x08, 0x00, 0x00, 0x00, 0x04, 0x00, 0x00, 0x00,
  0x03, 0x00, 0x00, 0x00, 0x01, 0x00, 0x00, 0x00, 0x18, 0x00, 0x00, 0x00,
  0x73, 0x65, 0x71, 0x75, 0x65, 0x6e, 0x74, 0x69, 0x61, 0x6c, 0x2f, 0x63,
  0x6f, 0x6e, 0x76, 0x32, 0x64, 0x2f, 0x43, 0x6f, 0x6e, 0x76, 0x32, 0x44,
  0x00, 0x00, 0x00, 0x00, 0x98, 0xe0, 0xff, 0xff, 0x8e, 0xe1, 0xff, 0xff,
  0x04, 0x00, 0x00, 0x00, 0x00, 0x01, 0x00, 0x00, 0x1f, 0x75, 0x01, 0xbf,
  0x94, 0xd4, 0x8d, 0x3c, 0xe7, 0xd3, 0x0a, 0x3e, 0x3f, 0x27, 0x9e, 0x3e,
  0x5a, 0x66, 0x51, 0xbe, 0x81, 0x8a, 0x40, 0x3e, 0x65, 0x1e, 0x0d, 0x3e,
  0x85, 0x2d, 0xb7, 0xbd, 0xa7, 0x0c, 0x9d, 0xbe, 0xe9, 0x16, 0xcf, 0xbe,
  0xf4, 0xa9, 0x98, 0x3e, 0x93, 0xf8, 0xac, 0x3e, 0x4f, 0xae, 0x81, 0x3e,
  0x54, 0x47, 0x3b, 0x3e, 0xdc, 0x3e, 0xf2, 0xbd, 0x0a, 0x03, 0x1e, 0x3e,
  0x56, 0x2d, 0xcd, 0xbe, 0xc6, 0x9c, 0x17, 0x3e, 0x0f, 0xae, 0x2b, 0x3e,
  0xa1, 0x3d, 0xe0, 0xbd, 0x86, 0x0a, 0x89, 0xbe, 0x9e, 0x7e, 0x78, 0x3e,
  0x7d, 0x78, 0xdb, 0x3d, 0x30, 0x90, 0x28, 0xbc, 0x88, 0x61, 0x81, 0xbe,
  0x54, 0x89, 0x90, 0xbe, 0xb0, 0x61, 0x29, 0x3e, 0xfd, 0xb2, 0xbd, 0x3e,
  0x00, 0xc0, 0x29, 0x3e, 0x56, 0x8f, 0x2d, 0x3e, 0x53, 0xcb, 0xa0, 0x3d,
  0x25, 0x82, 0x90, 0x3e, 0x3a, 0xa8, 0x4b, 0xbe, 0x0c, 0xe4, 0x0b, 0x3e,
  0x52, 0x10, 0xe8, 0xba, 0x18, 0xdc, 0xc7, 0x3e, 0xf8, 0xc3, 0x0c, 0xbe,
  0xad, 0x56, 0x4c, 0xbe, 0xea, 0x14, 0x6e, 0xbf, 0xdd, 0x96, 0xb9, 0xbe,
  0x9b, 0xfc, 0x9c, 0xbe, 0x6e, 0x2c, 0xda, 0xbe, 0xb5, 0xd3, 0x63, 0xbf,
  0x55, 0xe9, 0x14, 0xbf, 0xaa, 0x37, 0x50, 0xbd, 0xb9, 0x1d, 0xe9, 0xbe,
  0x8a, 0x95, 0xab, 0xbc, 0x76, 0xd6, 0x80, 0x3e, 0xe6, 0xec, 0x70, 0xbe,
  0x0c, 0x1f, 0x9e, 0x3d, 0x92, 0xb5, 0x99, 0x3d, 0x93, 0xd7, 0x8f, 0x3d,
  0xfd, 0xe1, 0x2a, 0xbe, 0x19, 0x00, 0x21, 0x3e, 0xcf, 0xee, 0xc1, 0x3d,
  0xd3, 0xef, 0x18, 0x3d, 0x44, 0xb0, 0x54, 0xbe, 0x63, 0xd4, 0x9a, 0xbe,
  0x07, 0x27, 0x68, 0x3e, 0x05, 0x07, 0xae, 0x3e, 0x16, 0x3e, 0xb4, 0xbe,
  0x26, 0x09, 0xdd, 0x3d, 0x23, 0x89, 0xa4, 0x3d, 0x81, 0x34, 0x96, 0x3e,
  0xf6, 0xe1, 0xff, 0xff, 0x10, 0x00, 0x00, 0x00, 0x06, 0x00, 0x00, 0x00,
  0x14, 0x00, 0x00, 0x00, 0x30, 0x00, 0x00, 0x00, 0x02, 0x00, 0x00, 0x00,
  0x04, 0x00, 0x00, 0x00, 0x10, 0x00, 0x00, 0x00, 0x19, 0x00, 0x00, 0x00,
  0x73, 0x65, 0x71, 0x75, 0x65, 0x6e, 0x74, 0x69, 0x61, 0x6c, 0x2f, 0x64,
  0x65, 0x6e, 0x73, 0x65, 0x5f, 0x31, 0x2f, 0x4d, 0x61, 0x74, 0x4d, 0x75,
  0x6c, 0x00, 0x00, 0x00, 0xe8, 0xe1, 0xff, 0xff, 0xde, 0xe2, 0xff, 0xff,
  0x04, 0x00, 0x00, 0x00, 0x00, 0x1c, 0x00, 0x00, 0x29, 0xf9, 0xac, 0xbc,
  0xe7, 0x31, 0xfa, 0xbd, 0xd7, 0x50, 0x99, 0xbd, 0x33, 0xcf, 0x80, 0xbc,
  0xc1, 0x1f, 0x85, 0x3d, 0xb1, 0x21, 0xa5, 0xbe, 0x49, 0x7b, 0x55, 0xbe,
  0xdf, 0x51, 0x36, 0x3c, 0xea, 0x14, 0xc1, 0x3c, 0xd6, 0xcb, 0x86, 0x3d,
  0x36, 0x46, 0x6f, 0xbe, 0x04, 0x92, 0xb7, 0x3d, 0x5c, 0xda, 0x26, 0xbe,
  0xba, 0x4f, 0x7c, 0xbe, 0x49, 0xe5, 0x88, 0xbe, 0x54, 0x24, 0x61, 0xbf,
  0xfd, 0x61, 0xcd, 0xbd, 0xc0, 0x91, 0xa6, 0x3d, 0xb1, 0x66, 0x73, 0xbd,
  0x2e, 0x31, 0x83, 0xbd, 0x82, 0x57, 0xf4, 0x3d, 0x28, 0x63, 0x40, 0x3e,
  0xd9, 0xd7, 0xc8, 0xbd, 0x3a, 0x65, 0x28, 0x3d, 0xdf, 0xb6, 0xfa, 0x3b,
  0x93, 0x13, 0x48, 0x3e, 0x52, 0xd0, 0x02, 0xbe, 0x95, 0xc1, 0xc0, 0x3c,
  0xd5, 0xe4, 0xdb, 0x3d, 0x12, 0x83, 0xb8, 0xbe, 0x19, 0xf2, 0x98, 0xbe,
  0x59, 0x96, 0xd5, 0xbe, 0x6a, 0x0d, 0xe3, 0x3d, 0x1b, 0x5d, 0x98, 0xbc,
  0xb6, 0xf8, 0xa8, 0xbd, 0x48, 0xf1, 0xa2, 0xbd, 0x63, 0x50, 0x08, 0x3e,
  0xd6, 0x63, 0xee, 0x3d, 0xce, 0x14, 0xb1, 0x3c, 0xaa, 0x0f, 0x46, 0xbb,
  0xf9, 0xb2, 0x20, 0x3c, 0x3d, 0x80, 0x5b, 0x3d, 0xba, 0x26, 0x51, 0x3d,
  0x48, 0x25, 0x1b, 0x3d, 0xb0, 0xe0, 0xbe, 0x3c, 0xf4, 0x7d, 0xbe, 0x3d,
  0x48, 0x6f, 0xa4, 0xbd, 0x0d, 0xf1, 0x4d, 0xbf, 0x59, 0xe3, 0xea, 0x3d,
  0x39, 0x4f, 0x27, 0xbd, 0xbd, 0x95, 0x5b, 0xbd, 0x77, 0x73, 0x5e, 0x3d,
  0x6e, 0x76, 0x43, 0x3e, 0xce, 0xf8, 0x1f, 0x3c, 0x26, 0x22, 0xda, 0x3d,
  0x99, 0x6e, 0x90, 0xbd, 0x8b, 0xc6, 0x34, 0x3c, 0x8f, 0x74, 0x50, 0xbc,
  0x86, 0x2c, 0x43, 0xbe, 0x49, 0x79, 0xeb, 0x3d, 0xa1, 0xba, 0x80, 0xbd,
  0xf1, 0x5e, 0xe8, 0x3d, 0xc1, 0x3c, 0xf2, 0x3c, 0x9a, 0x33, 0x20, 0xbf,
  0x52, 0x53, 0x0a, 0x3d, 0xc3, 0x4b, 0x15, 0x3e, 0x55, 0x4d, 0xf5, 0xbd,
  0xe3, 0x65, 0x85, 0x3d, 0x5e, 0x65, 0x4f, 0x3e, 0x45, 0xe6, 0x2b, 0x3c,
  0xb0, 0xcc, 0x2f, 0x3c, 0xd1, 0x27, 0xb0, 0xbd, 0x1b, 0x19, 0xc9, 0x3c,
  0x2a, 0xad, 0x19, 0x3c, 0x0c, 0xab, 0x54, 0xbd, 0x0b, 0xdc, 0xe3, 0xbb,
  0x39, 0x01, 0x6e, 0x3d, 0x27, 0xbb, 0xd5, 0xbc, 0x88, 0x7c, 0x93, 0xbc,
  0x9e, 0x13, 0x1f, 0xbf, 0x5e, 0xa9, 0xa6, 0xbd, 0x0a, 0xad, 0xc1, 0x3d,
  0x8c, 0x73, 0x77, 0xbe, 0x6d, 0x6d, 0x5b, 0xbd, 0x38, 0xcb, 0x21, 0x3e,
  0xfa, 0x2f, 0xe6, 0x3c, 0xe3, 0x11, 0x1b, 0xbe, 0x36, 0xfe, 0xd8, 0xbd,
  0x9e, 0xb8, 0x65, 0x3c, 0x44, 0x03, 0xbf, 0xbc, 0x47, 0x10, 0x13, 0xbf,
  0x0b, 0x7b, 0x0d, 0x3e, 0x66, 0x3f, 0x70, 0xbe, 0xbd, 0x43, 0xc9, 0xbd,
  0xc9, 0xaa, 0xfc, 0xbd, 0xf1, 0x63, 0x82, 0xbf, 0x1f, 0x57, 0xf4, 0xbd,
  0xb2, 0x9f, 0x69, 0x3e, 0x29, 0x6b, 0xee, 0xbd, 0x08, 0xda, 0x3e, 0xbe,
  0x22, 0x30, 0x2f, 0x3d, 0x1d, 0xf4, 0x14, 0xbe, 0x0b, 0xb7, 0xbc, 0xbe,
  0x36, 0x3c, 0xfe, 0x3a, 0x5c, 0xcb, 0x67, 0x3c, 0x47, 0xd2, 0x01, 0xbc,
  0xdb, 0x86, 0x03, 0xbf, 0x48, 0x43, 0xda, 0x3d, 0x95, 0x4c, 0x8e, 0x3c,
  0x93, 0xe0, 0x5f, 0xbe, 0xa4, 0x3a, 0x34, 0x3c, 0x7d, 0x6c, 0x28, 0xbe,
  0x52, 0xe6, 0x29, 0x3d, 0x2c, 0xa7, 0xce, 0x3d, 0x44, 0x49, 0xda, 0x3b,
  0xdd, 0x6b, 0x5a, 0x3e, 0x00, 0xa3, 0xc9, 0x3d, 0x0e, 0xd1, 0x8e, 0x3d,
  0xbe, 0xee, 0x19, 0x3e, 0x19, 0xfb, 0x48, 0xbd, 0x05, 0xe4, 0x05, 0x3d,
  0x29, 0xb1, 0x96, 0x3d, 0xff, 0x9a, 0x57, 0x3d, 0xee, 0x39, 0x15, 0xbe,
  0x2e, 0xcf, 0x93, 0xbc, 0x86, 0x2c, 0x11, 0xbe, 0xfd, 0x69, 0xb0, 0xbe,
  0x22, 0x14, 0x49, 0x3f, 0x3b, 0x28, 0xf8, 0xbe, 0xfc, 0xaa, 0x17, 0x3e,
  0xaa, 0x6b, 0x96, 0xbd, 0x7f, 0x76, 0x59, 0xbb, 0x78, 0x0f, 0x9b, 0x3d,
  0x7f, 0xff, 0x83, 0x3c, 0x9f, 0xa1, 0xa2, 0x3c, 0xa8, 0x55, 0x90, 0xbe,
  0x52, 0x71, 0xef, 0xbd, 0xec, 0xd4, 0x6c, 0x3e, 0x21, 0xaf, 0xb3, 0xbe,
  0x51, 0xf6, 0x6e, 0xbe, 0xba, 0x08, 0x2d, 0x3d, 0x4f, 0xe2, 0x28, 0x3d,
  0x94, 0x3a, 0xa0, 0xbd, 0xb6, 0x40, 0x7b, 0xbe, 0xbe, 0xfb, 0x31, 0x3e,
  0x70, 0x5b, 0x60, 0x3d, 0x61, 0xed, 0x83, 0xbe, 0xbc, 0x87, 0x0a, 0x3d,
  0xe1, 0x28, 0x5b, 0x3e, 0x98, 0x38, 0x91, 0xbe, 0x9d, 0x4b, 0xd1, 0x3c,
  0x84, 0x2b, 0x67, 0xbe, 0xdd, 0x5d, 0xbb, 0xbd, 0x4c, 0x73, 0x3e, 0x3d,
  0x08, 0xeb, 0xf7, 0xbe, 0x23, 0xcc, 0xb4, 0xbe, 0xd8, 0x74, 0x2d, 0xbc,
  0x42, 0x20, 0x4f, 0x3e, 0xea, 0xd7, 0x53, 0xbe, 0x78, 0x6c, 0xa1, 0xbe,
  0x6c, 0x41, 0xae, 0x3d, 0x12, 0xa4, 0x00, 0xbe, 0x57, 0x76, 0xd8, 0xbd,
  0xf3, 0xac, 0x82, 0x3d, 0x99, 0x14, 0x2d, 0x3e, 0x60, 0x72, 0xf5, 0xbd,
  0xc4, 0x04, 0x4a, 0x3e, 0x31, 0x03, 0x9e, 0xbe, 0x7c, 0x5e, 0x20, 0x3d,
  0xee, 0xc4, 0x16, 0xbd, 0xf5, 0x99, 0xeb, 0xbe, 0x5d, 0xb5, 0x9f, 0xbd,
  0x7f, 0x8e, 0x8e, 0xbe, 0x5d, 0x02, 0xbb, 0xbc, 0x32, 0x16, 0xd2, 0xbc,
  0x60, 0xe2, 0x8e, 0xbe, 0xef, 0x81, 0xcb, 0xbd, 0x8a, 0x27, 0x70, 0x3e,
  0x84, 0xb9, 0xa1, 0xbd, 0xf9, 0x8e, 0x5c, 0x3e, 0xaf, 0x3f, 0x5f, 0x3e,
  0x7b, 0xe9, 0x2d, 0x3e, 0xce, 0x4c, 0x93, 0x3e, 0xe6, 0x4f, 0xf1, 0xbe,
  0x7e, 0x76, 0xb0, 0x3d, 0x3a, 0xed, 0x14, 0x3d, 0xbb, 0xb2, 0x6b, 0xbe,
  0x32, 0xb2, 0x5c, 0x3d, 0xb3, 0x74, 0x7d, 0xbd, 0x54, 0x3e, 0x0c, 0x3e,
  0x69, 0x6e, 0xba, 0x3d, 0xf8, 0xc4, 0xd4, 0xbd, 0xf6, 0x39, 0xc7, 0xbe,
  0x40, 0xcf, 0xc2, 0x3d, 0xd4, 0x48, 0xb6, 0xbd, 0x33, 0x00, 0x6e, 0xbe,
  0x5b, 0x13, 0x18, 0x3e, 0x0a, 0x05, 0x0e, 0xbd, 0xd7, 0x7b, 0x87, 0x3e,
  0x8e, 0x02, 0x12, 0xbf, 0xae, 0xe7, 0x23, 0x3d, 0x32, 0xe4, 0x39, 0x3c,
  0x21, 0x86, 0x0f, 0xbf, 0xab, 0x37, 0x00, 0xbe, 0x37, 0x88, 0x99, 0xbc,
  0x78, 0xbc, 0x85, 0xbd, 0x3b, 0x63, 0x50, 0xbe, 0x97, 0x23, 0xba, 0xbe,
  0xe4, 0xe5, 0x98, 0xbe, 0x21, 0x5f, 0x3f, 0x3c, 0xe7, 0xdf, 0x5e, 0xbd,
  0x8a, 0x36, 0xbb, 0xbd, 0x9e, 0xc2, 0xc0, 0x3c, 0x10, 0x3a, 0x86, 0xbd,
  0x03, 0xea, 0xa2, 0x3d, 0xa4, 0x88, 0x08, 0xbe, 0xe5, 0xbb, 0x47, 0xbc,
  0xed, 0x66, 0x18, 0xbd, 0x4f, 0x5f, 0x8b, 0xbe, 0x02, 0xf8, 0x63, 0xbd,
  0xd3, 0xac, 0x96, 0xbd, 0x34, 0x32, 0xe1, 0x3d, 0x3b, 0x37, 0x4f, 0xbe,
  0x90, 0xf5, 0xb2, 0xbd, 0x0d, 0xa6, 0x0a, 0x3d, 0x57, 0x49, 0x44, 0xbe,
  0x80, 0xac, 0xa5, 0x3d, 0x10, 0xf4, 0xb8, 0x3e, 0x51, 0x61, 0xff, 0x3c,
  0xa9, 0x3a, 0x15, 0x3e, 0xb6, 0xd0, 0x24, 0x3e, 0x34, 0x8f, 0x08, 0xbc,
  0x53, 0x69, 0x17, 0xbe, 0xb7, 0xb8, 0x5f, 0x3d, 0xdc, 0xf9, 0xe4, 0x3d,
  0xd3, 0xb7, 0xa7, 0xbe, 0xa2, 0xe9, 0xf3, 0x3d, 0x8c, 0x7d, 0x4f, 0x3d,
  0x02, 0xae, 0xf6, 0x3c, 0xaa, 0x42, 0x1c, 0x3f, 0x0c, 0x91, 0x53, 0xbe,
  0xeb, 0xbb, 0xaf, 0x3e, 0x0b, 0xb2, 0xf6, 0x3d, 0xb1, 0xff, 0x04, 0x3e,
  0x68, 0x1d, 0xd9, 0xbe, 0x05, 0x40, 0x7c, 0xbe, 0x50, 0xb3, 0xce, 0x3e,
  0xc0, 0x24, 0xe1, 0xbd, 0x79, 0xa6, 0x45, 0xbc, 0x88, 0xf1, 0x3f, 0xbd,
  0x5b, 0xb8, 0x6e, 0xbe, 0xd8, 0x8c, 0xee, 0xbd, 0xcf, 0x41, 0x24, 0x3e,
  0x60, 0xed, 0xe8, 0xbd, 0x25, 0xa1, 0x69, 0xbd, 0xdd, 0x66, 0x74, 0xbd,
  0xe4, 0xfd, 0x83, 0xbe, 0x69, 0x78, 0x67, 0xbd, 0xdb, 0xb9, 0xee, 0xbe,
  0x28, 0x92, 0xd0, 0xbd, 0xe1, 0xd9, 0x82, 0xbe, 0xab, 0x21, 0xa7, 0xbe,
  0x73, 0x49, 0x43, 0x3d, 0xe3, 0xf2, 0x38, 0xbe, 0x10, 0x78, 0x60, 0xbc,
  0x07, 0xc2, 0x09, 0x3d, 0xd9, 0x7d, 0xe5, 0xbe, 0x1d, 0x2e, 0xb2, 0xbd,
  0xf6, 0x3e, 0x40, 0xbe, 0x94, 0x59, 0x9e, 0xbe, 0x51, 0xb3, 0x5e, 0xbd,
  0xbc, 0x31, 0xc4, 0x3d, 0x5b, 0x44, 0x92, 0xbe, 0xd1, 0x3d, 0xa6, 0x3e,
  0x26, 0x8f, 0x23, 0xbf, 0x9b, 0x79, 0x79, 0xbe, 0x86, 0xc9, 0x84, 0xbe,
  0xd0, 0xf0, 0x43, 0xbe, 0x79, 0x1b, 0x1c, 0x3d, 0xd6, 0x39, 0xeb, 0xbd,
  0x09, 0x05, 0x13, 0xbd, 0xca, 0x6f, 0xc5, 0xbd, 0xc0, 0xe5, 0x8e, 0xbe,
  0x92, 0x18, 0xb5, 0x3d, 0x19, 0x5c, 0x0d, 0xbf, 0x64, 0x0a, 0xa3, 0xbd,
  0x75, 0x10, 0x01, 0xbf, 0xf9, 0x53, 0x93, 0x3d, 0xc3, 0x75, 0x8f, 0xbe,
  0x68, 0x42, 0x87, 0x3c, 0xf2, 0xed, 0x2c, 0xbd, 0x6b, 0x28, 0x81, 0x3e,
  0x18, 0xed, 0x00, 0xbe, 0xa3, 0x32, 0xe7, 0x3c, 0x94, 0x4a, 0xb4, 0x3d,
  0x43, 0xda, 0x84, 0xbd, 0x7e, 0x01, 0x21, 0x3b, 0x04, 0xc5, 0xae, 0xbc,
  0xd1, 0x6c, 0x67, 0xbe, 0x63, 0x47, 0x3a, 0xbe, 0xb2, 0xbd, 0xaa, 0xbe,
  0xfa, 0x05, 0x1e, 0x3d, 0xd6, 0x35, 0x39, 0xbf, 0xfc, 0x5e, 0x34, 0x3e,
  0xcf, 0x3f, 0x17, 0x3e, 0xa3, 0x75, 0x20, 0xbb, 0x12, 0x58, 0x88, 0x3d,
  0x54, 0x47, 0x81, 0x3e, 0xe1, 0x02, 0x29, 0xbd, 0xa1, 0x12, 0x40, 0x3e,
  0xd2, 0xd9, 0x5b, 0x3e, 0x71, 0x69, 0x94, 0xbd, 0x98, 0x03, 0x1a, 0x3d,
  0xa3, 0xc3, 0x1d, 0x3d, 0xec, 0xa8, 0x83, 0x3d, 0x57, 0xc0, 0xc1, 0x3b,
  0xec, 0x2f, 0x46, 0x3c, 0xa4, 0x94, 0x77, 0xbd, 0xd1, 0x7e, 0x0d, 0xbf,
  0xaa, 0xf8, 0xbf, 0xbd, 0x8e, 0x35, 0x8e, 0x3e, 0x3b, 0x9f, 0x82, 0x3e,
  0x59, 0xd3, 0xbf, 0x3d, 0xae, 0x4d, 0x28, 0xbd, 0xbc, 0x5b, 0x0f, 0xbd,
  0xd4, 0x16, 0x9b, 0xbb, 0xa7, 0x5e, 0xd3, 0xbc, 0x87, 0x11, 0x18, 0xbd,
  0x17, 0x7b, 0x3f, 0x3c, 0x67, 0x46, 0x9c, 0xbd, 0xc3, 0x04, 0xb7, 0x3d,
  0x96, 0x09, 0x93, 0x3d, 0x4c, 0x8a, 0x04, 0x3d, 0xc0, 0xd1, 0x6f, 0xbe,
  0xe7, 0xb9, 0x62, 0xbc, 0x2f, 0x91, 0x27, 0x3d, 0x81, 0x7e, 0xa3, 0xbe,
  0xda, 0xd7, 0x16, 0x3d, 0x3a, 0x4d, 0x46, 0xbe, 0x59, 0x01, 0x0f, 0xbd,
  0x0f, 0xbd, 0x30, 0xbc, 0x57, 0xe5, 0xee, 0x3b, 0xab, 0xc0, 0xf2, 0xbd,
  0xd0, 0xf4, 0x68, 0xbe, 0x3e, 0x59, 0xa8, 0xbe, 0x73, 0x27, 0x3f, 0xbe,
  0xff, 0x32, 0x5e, 0xbd, 0x45, 0xed, 0x26, 0xbe, 0xb8, 0x31, 0x5f, 0xbe,
  0x54, 0xea, 0x42, 0xbe, 0x69, 0xdc, 0x43, 0x3d, 0xc1, 0xe7, 0xdb, 0xbd,
  0xbc, 0xc0, 0xf5, 0x3d, 0x94, 0x2e, 0xee, 0x3b, 0xf4, 0x23, 0x16, 0x3d,
  0x6f, 0x5a, 0x88, 0x3c, 0xcf, 0x07, 0x49, 0xbe, 0x83, 0xf8, 0x0a, 0xbc,
  0x49, 0x0f, 0xca, 0xbd, 0x4d, 0xa5, 0x5d, 0xbe, 0xa3, 0xfc, 0x58, 0xbe,
  0x49, 0xd1, 0x4c, 0xbe, 0xe8, 0x4a, 0xa4, 0x3d, 0xb2, 0x85, 0x23, 0xbd,
  0x0a, 0x10, 0xa8, 0x3d, 0xc6, 0x6c, 0x95, 0x3d, 0x96, 0x05, 0x5b, 0xbd,
  0x2b, 0x36, 0x80, 0xbd, 0x9e, 0xf2, 0x88, 0xbd, 0x02, 0xea, 0x91, 0x3d,
  0xd9, 0x02, 0x51, 0xbe, 0x8e, 0xc5, 0x85, 0xbc, 0xc3, 0x06, 0xc8, 0xbc,
  0xf3, 0xad, 0xea, 0xbd, 0x1c, 0xf2, 0x09, 0x3e, 0xbe, 0x74, 0xd5, 0xbd,
  0xcd, 0x70, 0xb4, 0xbe, 0xa9, 0xee, 0xaa, 0x3d, 0x5b, 0x3c, 0x63, 0xbe,
  0x99, 0x6a, 0x4f, 0xbe, 0x05, 0x79, 0xa2, 0xbd, 0xed, 0xe1, 0xfe, 0xbd,
  0x2d, 0xff, 0x23, 0x3e, 0x34, 0x7c, 0x26, 0xbe, 0x6c, 0xad, 0xbe, 0xbd,
  0xc3, 0x3d, 0x33, 0x3e, 0x04, 0x4e, 0x8a, 0xbd, 0x51, 0x78, 0x3e, 0x3e,
  0x6f, 0xae, 0x94, 0x3d, 0x41, 0x49, 0xc4, 0xbd, 0xc6, 0x46, 0x8c, 0xbd,
  0x78, 0x0b, 0x96, 0x3d, 0x36, 0x08, 0x42, 0x3d, 0x31, 0x45, 0x4f, 0xbe,
  0x43, 0xc3, 0x28, 0xbd, 0x77, 0xa7, 0x97, 0xbd, 0x40, 0xd2, 0x32, 0x3d,
  0x36, 0x30, 0x09, 0x3e, 0xd4, 0x91, 0x58, 0xbd, 0x7b, 0x96, 0xb0, 0x3c,
  0x8a, 0xaa, 0xc5, 0xbd, 0x20, 0x8b, 0xc4, 0x3d, 0x6d, 0x9f, 0x2f, 0xbe,
  0x4a, 0x9b, 0xe8, 0x3d, 0xe0, 0x5f, 0x53, 0xbe, 0xee, 0xb5, 0x41, 0xbe,
  0x17, 0x1e, 0x50, 0xbe, 0x7b, 0x85, 0x16, 0xbe, 0x25, 0xdd, 0x95, 0xbe,
  0x1b, 0x43, 0x80, 0xbe, 0x53, 0xcf, 0x4e, 0xbe, 0x03, 0x27, 0xe1, 0x3d,
  0xca, 0x35, 0xdd, 0x3c, 0x5f, 0x9a, 0x97, 0xbd, 0xc0, 0xff, 0xb1, 0xbd,
  0x32, 0x7d, 0x3d, 0x3d, 0x7e, 0x31, 0x99, 0xbe, 0x3f, 0xe7, 0x45, 0x3d,
  0xeb, 0xbd, 0x55, 0xbe, 0xc7, 0xf0, 0x82, 0x3d, 0x55, 0x5b, 0xc4, 0x3d,
  0x52, 0x7f, 0xad, 0x3d, 0x39, 0x3b, 0xc1, 0x3d, 0x85, 0x08, 0xa8, 0xbd,
  0xe9, 0x40, 0x6d, 0xbe, 0x94, 0x89, 0x1c, 0xbd, 0x1e, 0x47, 0xa1, 0xbd,
  0x7f, 0x09, 0x0c, 0xbe, 0xe2, 0x94, 0x77, 0xbc, 0xbd, 0x25, 0x64, 0xbe,
  0x16, 0x74, 0x1f, 0xbd, 0x78, 0xd7, 0x87, 0x3c, 0xa4, 0x2c, 0x41, 0xbd,
  0x17, 0x03, 0xc7, 0x3d, 0xee, 0x76, 0x37, 0xbe, 0x60, 0xa6, 0xc5, 0xbc,
  0xff, 0x31, 0xbe, 0xb9, 0x60, 0x10, 0x86, 0x3d, 0x9b, 0x16, 0x8b, 0x3d,
  0x32, 0x15, 0x71, 0xbe, 0x2a, 0x8c, 0xa3, 0xbd, 0x8b, 0xb4, 0xa8, 0x3d,
  0x00, 0x37, 0x0c, 0xbe, 0x5f, 0xff, 0x45, 0xbe, 0x59, 0xea, 0xa6, 0xbc,
  0xec, 0xd6, 0xd4, 0x3c, 0x22, 0x17, 0x4f, 0xbe, 0x61, 0x39, 0x35, 0xbd,
  0x46, 0x08, 0xc2, 0xbd, 0xa9, 0xd4, 0x57, 0xbe, 0x34, 0x13, 0x4b, 0xbd,
  0x54, 0x87, 0xe1, 0xbd, 0x0e, 0x17, 0x45, 0x3d, 0x8c, 0x44, 0xcb, 0xbc,
  0xb3, 0x7e, 0x52, 0xbe, 0x67, 0x3b, 0xa4, 0xbe, 0x1f, 0x4c, 0x93, 0xbc,
  0x91, 0xfa, 0x6a, 0x3b, 0xd7, 0x6a, 0x11, 0xbe, 0x14, 0x0f, 0x01, 0xbe,
  0x25, 0xec, 0x89, 0xbd, 0x0d, 0x53, 0xaf, 0xbd, 0x56, 0x53, 0xb1, 0x3d,
  0x6c, 0x11, 0x42, 0xbe, 0xe1, 0xe6, 0x05, 0xbe, 0x5e, 0xce, 0x88, 0x3d,
  0xbb, 0x3b, 0xb2, 0xbe, 0x1f, 0x25, 0x83, 0x3c, 0x48, 0xba, 0x55, 0xbc,
  0x9b, 0x0b, 0x4e, 0x3d, 0xe8, 0xb9, 0xa7, 0xbc, 0x62, 0xae, 0x8f, 0xbe,
  0xfe, 0xa9, 0x29, 0xbe, 0x3a, 0x76, 0x87, 0x3e, 0x9b, 0x07, 0x19, 0xbe,
  0x2a, 0xd0, 0x83, 0xbe, 0xae, 0x23, 0xc9, 0x3c, 0x1d, 0xc2, 0xc1, 0x3d,
  0x2f, 0x31, 0xc0, 0x3d, 0x9f, 0xd0, 0x1a, 0xbd, 0xe0, 0xe4, 0xd1, 0xbd,
  0xf2, 0xbb, 0x54, 0xbe, 0x60, 0x82, 0x8c, 0xbe, 0xa9, 0x60, 0x09, 0x3c,
  0xb0, 0x0c, 0x68, 0x3e, 0x5d, 0xbd, 0x24, 0xbd, 0x95, 0x92, 0x07, 0x3d,
  0xb0, 0x1a, 0xc2, 0xbd, 0xc6, 0xf6, 0xcc, 0xbb, 0xd6, 0x23, 0xd0, 0x3c,
  0xa3, 0x4a, 0x3f, 0xbe, 0x5e, 0x1a, 0xa3, 0xbd, 0x9e, 0x2d, 0x1f, 0x3c,
  0x67, 0x9c, 0x1d, 0xbe, 0xeb, 0x14, 0x81, 0xbb, 0xa5, 0x06, 0x72, 0xbd,
  0xa9, 0x88, 0xf1, 0x3d, 0x58, 0x44, 0xcb, 0x3c, 0x22, 0x59, 0x55, 0x3e,
  0xac, 0xb7, 0x2d, 0x3d, 0xf9, 0x10, 0x2b, 0x3e, 0x4c, 0xaa, 0x21, 0xbe,
  0x3e, 0xa8, 0xcc, 0xbd, 0xce, 0xe6, 0x0a, 0xbe, 0xba, 0xe2, 0x8e, 0xbd,
  0x53, 0x7a, 0x13, 0xbd, 0x4c, 0x83, 0x4b, 0xbe, 0xdf, 0x05, 0x19, 0xbe,
  0xb4, 0x89, 0x1e, 0xbd, 0x05, 0x4c, 0xe5, 0xbd, 0xe8, 0xc0, 0xcc, 0xbd,
  0x79, 0x41, 0xbf, 0xbe, 0x59, 0xd4, 0x52, 0xbd, 0xe9, 0x97, 0xdc, 0xbd,
  0xb1, 0x60, 0xde, 0xbd, 0xec, 0xe2, 0x3f, 0xbd, 0x22, 0xdc, 0xfc, 0x3d,
  0xaf, 0x94, 0x8d, 0xbc, 0x6b, 0x03, 0x48, 0x3d, 0x3a, 0x57, 0x25, 0xbe,
  0x99, 0xbc, 0xd6, 0xbd, 0x3f, 0xbc, 0xa0, 0x3d, 0xcf, 0xd2, 0xde, 0xbc,
  0xb2, 0x5c, 0x43, 0xbd, 0xb5, 0x1e, 0x88, 0x3d, 0xaa, 0xcb, 0x5a, 0xbe,
  0xeb, 0xc8, 0x8c, 0xbc, 0xb2, 0x12, 0xb4, 0xbd, 0xc7, 0x99, 0x73, 0xbd,
  0x72, 0x04, 0xdc, 0x3c, 0x30, 0x3d, 0x05, 0xbe, 0x1c, 0x32, 0x3a, 0xbe,
  0x51, 0x8a, 0xa6, 0x3e, 0xf5, 0x9e, 0xbe, 0xbd, 0x46, 0x71, 0x54, 0xbc,
  0x6f, 0x61, 0x6f, 0xbe, 0xbb, 0x9b, 0x49, 0x3d, 0x72, 0x62, 0xf7, 0x3d,
  0x5b, 0x03, 0x2c, 0x3b, 0xff, 0xc4, 0x73, 0xbe, 0xf0, 0x38, 0x78, 0x3d,
  0x53, 0xc3, 0x57, 0x3e, 0xdf, 0xc7, 0x9e, 0x3c, 0xad, 0x8d, 0x47, 0xbe,
  0x01, 0xb4, 0x45, 0xbe, 0xcf, 0x5b, 0x1a, 0xbc, 0xfa, 0x10, 0xb9, 0xbd,
  0x4c, 0xb2, 0x4e, 0x3b, 0xde, 0x78, 0x49, 0x3d, 0xdb, 0xdf, 0xb8, 0xbd,
  0xca, 0x05, 0x1e, 0xbe, 0x70, 0xb8, 0x38, 0xbe, 0x2b, 0xa1, 0xa8, 0xbd,
  0x38, 0xed, 0x7a, 0x3d, 0x64, 0xab, 0xaf, 0xbd, 0xe5, 0x12, 0x50, 0x3e,
  0x29, 0x5d, 0x99, 0xbe, 0x4a, 0x34, 0x59, 0x3b, 0x95, 0x58, 0x23, 0xbe,
  0x73, 0x00, 0x4b, 0xbe, 0x63, 0x7d, 0x58, 0xbe, 0x9c, 0x8b, 0x2a, 0xbb,
  0x17, 0x3d, 0x42, 0xbe, 0xce, 0x45, 0x38, 0xbe, 0xf7, 0x63, 0x04, 0xbe,
  0x99, 0x07, 0xb8, 0xbd, 0x38, 0x07, 0x86, 0xbe, 0x1c, 0x70, 0x56, 0xbd,
  0x54, 0x49, 0x1f, 0xbf, 0x65, 0x5f, 0x25, 0xba, 0x8c, 0x15, 0xfa, 0xbd,
  0x42, 0x47, 0x1f, 0xbe, 0x63, 0x66, 0x98, 0xbe, 0x32, 0xe8, 0xf7, 0x3d,
  0x70, 0x54, 0xc8, 0x3a, 0x31, 0x11, 0x86, 0xbc, 0x8c, 0x7a, 0x16, 0x3e,
  0xe3, 0x94, 0xc3, 0xbd, 0xe2, 0xf1, 0xbe, 0xbe, 0x31, 0x04, 0x6e, 0x3d,
  0x95, 0xa2, 0xcf, 0xbe, 0x06, 0x09, 0x0f, 0xbe, 0xca, 0x13, 0xa0, 0xbd,
  0x35, 0x16, 0x2e, 0xbc, 0x10, 0x7c, 0xe5, 0xbe, 0x15, 0x80, 0x1f, 0xbe,
  0x35, 0x28, 0x87, 0xbd, 0x4f, 0x20, 0x5f, 0xbe, 0xa6, 0xf2, 0x5c, 0xbe,
  0x5c, 0x63, 0x90, 0x3d, 0x5b, 0xd3, 0x93, 0xbe, 0x5b, 0x3b, 0x72, 0x3e,
  0x3b, 0xa5, 0x9f, 0x3d, 0x61, 0x04, 0x4f, 0xbe, 0x20, 0x4f, 0x8a, 0xbe,
  0x8d, 0x6b, 0x37, 0xbe, 0x76, 0xb8, 0x8d, 0xbd, 0xd7, 0xe6, 0xaf, 0xbe,
  0xcb, 0x83, 0x81, 0xbd, 0xc3, 0x20, 0xed, 0x3c, 0xfb, 0x1d, 0xbc, 0xbe,
  0x46, 0x91, 0x4d, 0xbe, 0xda, 0x3e, 0x9a, 0xbc, 0x18, 0x86, 0x90, 0xbd,
  0x87, 0xf9, 0x01, 0xbe, 0xa9, 0x9a, 0x07, 0x3e, 0xf4, 0xb4, 0x0e, 0xbe,
  0x24, 0x47, 0x91, 0x3e, 0xfe, 0xf7, 0xf2, 0xbc, 0xaa, 0x8f, 0x50, 0x3e,
  0xe7, 0x08, 0x99, 0xbe, 0x5f, 0x1c, 0x0c, 0xbe, 0xa8, 0xa4, 0xbc, 0xbd,
  0x62, 0x7d, 0xbb, 0xbe, 0x7d, 0x97, 0x66, 0x3e, 0xee, 0xf8, 0xba, 0xbd,
  0x2e, 0x1d, 0xb9, 0xbe, 0x7a, 0x05, 0x4f, 0xbd, 0x0e, 0xda, 0x69, 0xbe,
  0x5a, 0x0d, 0x37, 0xbe, 0x22, 0x97, 0x2a, 0xbe, 0xfb, 0x21, 0x6a, 0x3c,
  0x2d, 0x8b, 0x07, 0xbe, 0xf8, 0x7a, 0xd7, 0x3d, 0xe2, 0xb3, 0xdc, 0x3d,
  0x11, 0xbf, 0x52, 0x3e, 0xb0, 0x3e, 0xa3, 0x3d, 0x41, 0x30, 0x8a, 0x3d,
  0xc7, 0x00, 0x30, 0x3e, 0xd3, 0x75, 0x07, 0x3e, 0x2c, 0xbe, 0xbc, 0x3e,
  0xdd, 0xe6, 0xb0, 0x3a, 0xe5, 0xaa, 0xf8, 0xbd, 0x07, 0x2d, 0x67, 0x3d,
  0x52, 0xde, 0x3e, 0x3d, 0xf8, 0x36, 0x98, 0xbd, 0x45, 0xf5, 0x9b, 0xbc,
  0xfb, 0x45, 0x38, 0xbb, 0x20, 0xb9, 0x1d, 0xbe, 0x08, 0xd7, 0xca, 0xbe,
  0xd9, 0x49, 0x31, 0x3e, 0xa4, 0xaf, 0x09, 0x3e, 0x4e, 0xa1, 0xad, 0x3d,
  0x95, 0xd4, 0x8f, 0x3e, 0xa9, 0x64, 0xe0, 0x3d, 0x54, 0x98, 0x5b, 0x3e,
  0xe2, 0xff, 0x07, 0x3d, 0xa1, 0xcd, 0xc2, 0x3d, 0xb3, 0x6c, 0xb8, 0xbd,
  0xf7, 0x0e, 0x7d, 0xbe, 0xe1, 0xb3, 0x42, 0x3e, 0x94, 0x58, 0xdc, 0x3c,
  0x36, 0xb9, 0x95, 0xbc, 0x0d, 0x2c, 0xd9, 0xbd, 0x4a, 0xd5, 0x5b, 0xbd,
  0x4c, 0xd9, 0x5c, 0xbe, 0xd7, 0x33, 0x07, 0xbc, 0xe4, 0x83, 0x1f, 0xbe,
  0xf0, 0x55, 0xd9, 0x3d, 0x0c, 0x79, 0x3f, 0x3e, 0x02, 0x1d, 0xb7, 0xbd,
  0x64, 0x40, 0x8e, 0xbe, 0x05, 0x65, 0xfb, 0x3d, 0xe3, 0xeb, 0xa1, 0xbd,
  0x7c, 0x5d, 0x88, 0x3d, 0xac, 0xcc, 0x67, 0xbe, 0x07, 0x38, 0x6b, 0xbe,
  0x4a, 0x94, 0x10, 0x3e, 0x31, 0xb5, 0x7a, 0x3c, 0x66, 0xe2, 0x96, 0xbd,
  0x6c, 0x45, 0xa8, 0x3d, 0x82, 0x8e, 0x61, 0xbe, 0xa3, 0x6e, 0x9d, 0xbe,
  0x9f, 0xe9, 0x04, 0x3d, 0x8e, 0xd4, 0xda, 0x3d, 0x3b, 0xb8, 0x20, 0xbe,
  0xc0, 0xea, 0x87, 0xbe, 0x7b, 0x1b, 0xd9, 0xbe, 0x2f, 0xa6, 0x11, 0xbe,
  0xc2, 0xb8, 0x3b, 0xbe, 0x36, 0x90, 0x14, 0xbd, 0xc3, 0x36, 0xe6, 0xbe,
  0x4a, 0x5e, 0x83, 0xbe, 0xba, 0x73, 0x9b, 0xbe, 0x1b, 0x54, 0x34, 0x3e,
  0xb8, 0x55, 0xbf, 0x3e, 0x99, 0xb7, 0x48, 0x3e, 0x7e, 0xba, 0xfc, 0xbe,
  0x82, 0xec, 0x98, 0xbd, 0xa7, 0xe8, 0x6d, 0xbd, 0xc6, 0x82, 0x53, 0x3e,
  0x0c, 0x4a, 0x55, 0x3d, 0x76, 0x9e, 0x00, 0xbe, 0x0e, 0x6c, 0x7c, 0xbe,
  0xad, 0x0e, 0x2c, 0xbe, 0xb5, 0x03, 0x5c, 0x3d, 0x0b, 0xd3, 0x25, 0xbd,
  0xc9, 0xd0, 0x80, 0xbc, 0x62, 0xb9, 0x01, 0x3d, 0x77, 0x59, 0x19, 0xbf,
  0x32, 0x11, 0x2c, 0x3d, 0x28, 0x15, 0x3c, 0x3e, 0x26, 0xc8, 0xd5, 0x3d,
  0x73, 0x17, 0x00, 0x3e, 0x49, 0x2c, 0x21, 0x3d, 0xa9, 0xb1, 0x11, 0x3c,
  0x64, 0x4a, 0xa9, 0x3e, 0x76, 0x66, 0x19, 0xbd, 0xb9, 0x53, 0xc3, 0xbe,
  0x89, 0xff, 0xca, 0xbd, 0x25, 0xe8, 0xba, 0x3d, 0xa8, 0xe3, 0x96, 0x3e,
  0x30, 0xa0, 0x8e, 0xbc, 0x6e, 0xea, 0x34, 0xbe, 0x7c, 0x52, 0x1c, 0x3e,
  0x4f, 0xd9, 0x96, 0xbe, 0xed, 0xdf, 0xbc, 0xbc, 0x5a, 0xc0, 0xcc, 0x3d,
  0x70, 0x98, 0x85, 0x3e, 0x2b, 0x91, 0x09, 0xbe, 0xf6, 0xda, 0x15, 0xbe,
  0x48, 0xc4, 0x4a, 0xbd, 0xe4, 0x17, 0xb6, 0x3e, 0xe5, 0x14, 0x17, 0x3e,
  0x0e, 0x00, 0xcb, 0xbd, 0xb0, 0x3e, 0x60, 0xbe, 0xe7, 0xb8, 0x13, 0x3d,
  0x23, 0x11, 0x3a, 0x3d, 0xb8, 0xbb, 0x07, 0xbd, 0x58, 0x21, 0x79, 0xbe,
  0xdf, 0xc0, 0x60, 0xbe, 0x42, 0x3d, 0x38, 0xbe, 0xa4, 0x96, 0xa2, 0x3e,
  0x49, 0x6a, 0x86, 0xbe, 0x3d, 0x42, 0xaa, 0x3d, 0xa3, 0x22, 0xda, 0xbe,
  0x1b, 0xf4, 0xff, 0xbe, 0x6d, 0x98, 0x68, 0xbd, 0xf3, 0x6c, 0x88, 0x3e,
  0x01, 0x9d, 0x3e, 0xbd, 0x34, 0x9b, 0xca, 0xbe, 0x05, 0x26, 0x17, 0xbf,
  0xb3, 0x10, 0xa9, 0xbd, 0x0e, 0x01, 0xc8, 0xbb, 0xb6, 0x7b, 0xac, 0x3c,
  0xeb, 0xa0, 0x1f, 0xbe, 0x88, 0x86, 0xe0, 0xbe, 0x88, 0x22, 0xcb, 0xbd,
  0x92, 0xb6, 0xb4, 0x3e, 0x84, 0xb2, 0x4f, 0x3e, 0x0b, 0x8e, 0x8f, 0x3e,
  0x64, 0x64, 0xbc, 0xbe, 0x3b, 0x4c, 0x04, 0xbf, 0xd8, 0x98, 0xe3, 0xbd,
  0xcd, 0xc6, 0x1d, 0x3e, 0x8b, 0x7a, 0x07, 0xbd, 0xa5, 0xc9, 0x8f, 0xbe,
  0xf9, 0x27, 0x95, 0xbe, 0x62, 0xe8, 0xee, 0xbe, 0x18, 0x45, 0x10, 0xbe,
  0x01, 0x31, 0xec, 0xbb, 0x04, 0xaf, 0x76, 0xbe, 0x93, 0xeb, 0xfb, 0xbd,
  0x94, 0x97, 0x30, 0xbe, 0x4c, 0x3c, 0x84, 0x3e, 0xae, 0xb5, 0xd8, 0x3e,
  0x9c, 0x50, 0x7d, 0x3e, 0x53, 0x03, 0x92, 0xbd, 0xd2, 0xae, 0x61, 0xbe,
  0x2e, 0xe3, 0xb4, 0xbd, 0xcf, 0x51, 0x02, 0x3e, 0x83, 0xd0, 0x47, 0xbe,
  0x09, 0x57, 0x76, 0xbe, 0x09, 0x32, 0x92, 0xbe, 0xaa, 0x31, 0x19, 0xbe,
  0xde, 0xe5, 0xf5, 0x3d, 0xef, 0x8f, 0x3f, 0xbd, 0x65, 0x47, 0x76, 0xbe,
  0x25, 0xf6, 0x15, 0xbc, 0x46, 0x96, 0x37, 0xbe, 0xac, 0x1d, 0x63, 0x3c,
  0xfa, 0x6e, 0xa7, 0x3e, 0xa0, 0xe1, 0xd0, 0x3c, 0x73, 0xaf, 0x0e, 0x3e,
  0xda, 0x81, 0x53, 0xbe, 0x1e, 0xe1, 0xa9, 0x3c, 0x26, 0x50, 0x90, 0xbd,
  0x14, 0xa0, 0x83, 0x3e, 0x47, 0xdc, 0xd6, 0x3c, 0x59, 0x8c, 0x53, 0x3d,
  0x85, 0x32, 0x53, 0x3c, 0xae, 0xff, 0xbf, 0xbd, 0xc3, 0x75, 0x5d, 0xbe,
  0xf6, 0xb1, 0xb3, 0x3d, 0x39, 0xb7, 0x43, 0xbd, 0x0c, 0x93, 0x97, 0x3e,
  0x7d, 0x8a, 0x9a, 0xbe, 0xda, 0xb0, 0x53, 0x3e, 0xd3, 0x54, 0xb3, 0x3d,
  0xcc, 0x94, 0x91, 0xbd, 0x2e, 0x28, 0x15, 0x3d, 0x77, 0xec, 0x01, 0x3e,
  0xfa, 0x42, 0x6f, 0xbd, 0xea, 0x69, 0x67, 0x3e, 0xc5, 0x05, 0x52, 0xbe,
  0xe2, 0xf0, 0x87, 0x3e, 0xff, 0x92, 0x07, 0x3e, 0xff, 0xcb, 0xfe, 0x3b,
  0x1b, 0xe1, 0x9c, 0xbe, 0x6b, 0xf6, 0x12, 0x3d, 0x95, 0xc9, 0x6f, 0x3d,
  0x00, 0x8f, 0xd0, 0xbd, 0x9e, 0x3d, 0x6e, 0x3d, 0x13, 0x4a, 0xd4, 0xbc,
  0xe3, 0x23, 0x4c, 0x3d, 0x97, 0xd8, 0xde, 0xbd, 0x80, 0x3c, 0xcb, 0x3c,
  0xeb, 0x90, 0xd4, 0x3d, 0x64, 0xa4, 0xc7, 0xbd, 0xf2, 0x2a, 0x42, 0x3e,
  0x3d, 0xe6, 0xe4, 0x3c, 0x4b, 0x0e, 0xd7, 0x3e, 0x95, 0xda, 0xe7, 0x3d,
  0x88, 0x01, 0xec, 0xbd, 0x5b, 0x8d, 0x2b, 0xbe, 0x81, 0x82, 0xf3, 0x3b,
  0x35, 0x3e, 0xdd, 0x3e, 0x06, 0x78, 0x40, 0xbe, 0x08, 0x83, 0xa8, 0x3d,
  0xb3, 0x10, 0xf0, 0x3d, 0xcc, 0x8a, 0x71, 0xbe, 0x20, 0x95, 0xa1, 0xbe,
  0x7a, 0xbd, 0x5a, 0xbd, 0x50, 0xd4, 0x73, 0xbd, 0x8f, 0x12, 0xe0, 0x3b,
  0x7e, 0xa0, 0xfe, 0x3d, 0xd5, 0x28, 0x2c, 0xbe, 0xad, 0x37, 0x81, 0x3e,
  0x45, 0xfb, 0x96, 0x3e, 0x49, 0xe4, 0x15, 0x3e, 0xd0, 0xf3, 0x1f, 0xbd,
  0xb7, 0xc9, 0x87, 0xbe, 0x2a, 0xf0, 0x65, 0x3e, 0x85, 0x22, 0xd9, 0xbd,
  0xa5, 0xec, 0xe8, 0xbd, 0x7b, 0x6b, 0xa6, 0x3e, 0x47, 0x39, 0x74, 0x3e,
  0x5c, 0x86, 0xcc, 0xbd, 0xa2, 0x2a, 0x26, 0xbe, 0xd2, 0xff, 0xf0, 0xbd,
  0x62, 0x09, 0x97, 0xbd, 0xbb, 0x02, 0xb5, 0xbd, 0x44, 0xb9, 0x22, 0xbe,
  0xaf, 0x35, 0x73, 0x3d, 0x78, 0xe4, 0x28, 0x3d, 0x71, 0x0c, 0x0a, 0xbe,
  0x36, 0x02, 0xe4, 0xbe, 0x3a, 0x92, 0x89, 0xb8, 0xa6, 0x0a, 0x3d, 0x3e,
  0x70, 0xd2, 0x9c, 0x3c, 0xbd, 0xe3, 0x63, 0xbd, 0x6b, 0x6f, 0x58, 0x3e,
  0x88, 0x50, 0xcf, 0x3d, 0x98, 0x64, 0x8b, 0x3e, 0x96, 0xfc, 0x7d, 0x3d,
  0x88, 0x85, 0x9a, 0x3d, 0x62, 0xfd, 0x05, 0xbe, 0xd6, 0x74, 0x2b, 0xbb,
  0x44, 0x1f, 0xb5, 0xbe, 0xbb, 0x85, 0xa1, 0x3e, 0xb9, 0x41, 0x43, 0x3e,
  0x96, 0xc4, 0x05, 0xbe, 0x16, 0xb0, 0xbf, 0xbe, 0x17, 0x85, 0x59, 0xbe,
  0xe0, 0x56, 0xc5, 0x3d, 0x36, 0x18, 0x6c, 0x3c, 0x4c, 0x76, 0x7e, 0xbd,
  0x48, 0x70, 0x08, 0xbc, 0xcc, 0x9b, 0x3d, 0x3d, 0x24, 0x50, 0x3a, 0xbe,
  0xd0, 0x96, 0xb4, 0x3c, 0x0d, 0x1d, 0xe7, 0xbd, 0xd0, 0x45, 0x32, 0xbe,
  0xd5, 0x67, 0xfb, 0xbd, 0xdd, 0xe4, 0x76, 0xbe, 0x20, 0xc3, 0x3d, 0x3e,
  0xa5, 0x0c, 0xbf, 0xbd, 0xa8, 0xcc, 0xcb, 0xbd, 0x62, 0xeb, 0xc1, 0xbe,
  0x5b, 0x4a, 0xa9, 0xbd, 0xbe, 0xb4, 0x3e, 0x3e, 0x35, 0xc0, 0x02, 0x3e,
  0x10, 0xba, 0x3f, 0xbe, 0x8a, 0x6b, 0x60, 0xbe, 0xaf, 0x55, 0xa4, 0xbd,
  0xa1, 0x89, 0xb2, 0x39, 0x9c, 0x38, 0xee, 0x3d, 0xad, 0x37, 0xd4, 0xbe,
  0xd8, 0x32, 0x05, 0xbe, 0xad, 0x86, 0xba, 0xbc, 0x31, 0xb0, 0x4b, 0x3e,
  0x08, 0xe8, 0x28, 0xbe, 0x58, 0xc6, 0xb9, 0xb8, 0x28, 0x44, 0x1c, 0xbe,
  0x5d, 0x55, 0xde, 0xbc, 0x35, 0x32, 0x06, 0xbf, 0xca, 0x0b, 0x7b, 0xbd,
  0xa1, 0xa4, 0xf7, 0x3e, 0xd7, 0x1c, 0xfc, 0xbd, 0xce, 0xb7, 0x53, 0x3e,
  0x72, 0xe1, 0x74, 0xbe, 0xb5, 0x9a, 0x36, 0xbf, 0xd9, 0xdb, 0x7b, 0xbe,
  0x74, 0xe4, 0xe2, 0x3b, 0x30, 0xee, 0x18, 0xbc, 0xae, 0x7f, 0x30, 0x3e,
  0x4c, 0xd7, 0x4e, 0xbe, 0x2b, 0x57, 0x04, 0x3f, 0xc9, 0x45, 0xc4, 0x3d,
  0xf6, 0x1c, 0x4a, 0xbe, 0x1b, 0xc9, 0xab, 0x3c, 0x33, 0xbf, 0x12, 0xbe,
  0xda, 0xc6, 0x80, 0x3e, 0x35, 0xc8, 0xf9, 0x3e, 0xe2, 0x5d, 0x1a, 0xbe,
  0x49, 0xe0, 0xa9, 0xbe, 0x7b, 0xad, 0xe7, 0xbd, 0xe7, 0xea, 0xe0, 0xbd,
  0xf2, 0xec, 0xc8, 0x3c, 0x29, 0x7c, 0x30, 0x3d, 0x52, 0xb1, 0x0d, 0xbe,
  0xb0, 0x75, 0x12, 0x3f, 0x6b, 0x06, 0x0a, 0xbe, 0x3e, 0x4c, 0xa9, 0x3e,
  0xd4, 0xdc, 0x97, 0x3d, 0x8e, 0xc7, 0xbc, 0xbe, 0xc4, 0xb1, 0xdb, 0xbd,
  0xf0, 0x3c, 0x5e, 0xbe, 0x9c, 0x63, 0xd4, 0x3e, 0x6e, 0x01, 0xee, 0x3e,
  0x47, 0x43, 0x7f, 0x3d, 0x5a, 0xf2, 0xdd, 0xbc, 0xdc, 0x6e, 0x2a, 0x3d,
  0xac, 0xf5, 0x04, 0xbf, 0x30, 0x10, 0x33, 0xbb, 0x7c, 0xda, 0x46, 0x3e,
  0xe2, 0x8d, 0x0c, 0x3d, 0x52, 0x7c, 0xbc, 0x3e, 0x84, 0x59, 0x98, 0xbd,
  0x80, 0x6d, 0x49, 0x3e, 0x3c, 0x03, 0x5c, 0x3e, 0x7c, 0x87, 0x71, 0xbd,
  0x95, 0xad, 0x7f, 0xbd, 0xa7, 0xad, 0xca, 0xbd, 0xd0, 0xef, 0x2d, 0x3e,
  0xab, 0x64, 0xa9, 0x3e, 0x96, 0x32, 0x13, 0xbd, 0xf9, 0xc5, 0x8d, 0x3e,
  0xde, 0x12, 0x80, 0x3e, 0x77, 0x78, 0x89, 0xbe, 0x5c, 0x06, 0x3b, 0x3d,
  0x61, 0xe5, 0x60, 0x3e, 0xa7, 0xe1, 0xb6, 0xbc, 0x3b, 0xd3, 0x58, 0xbe,
  0xbd, 0x33, 0xc2, 0xbe, 0xc9, 0x71, 0x69, 0x3e, 0x3c, 0xca, 0x26, 0x3e,
  0x5c, 0xde, 0x75, 0xbe, 0xa1, 0x07, 0x5e, 0xbe, 0x5d, 0x50, 0x93, 0xbe,
  0x70, 0x5b, 0x49, 0x3d, 0x68, 0xc7, 0x90, 0x3e, 0x00, 0xd1, 0x2f, 0xbe,
  0xb5, 0x2e, 0x3c, 0x3e, 0x1e, 0x81, 0x81, 0x3b, 0xab, 0x91, 0xff, 0xbd,
  0x34, 0xf4, 0x4e, 0xbe, 0x2e, 0x6a, 0x35, 0xbe, 0xf9, 0x5c, 0x45, 0xbe,
  0xea, 0x19, 0xc8, 0xbb, 0x12, 0x69, 0x94, 0xbe, 0x31, 0xf1, 0x27, 0x3e,
  0xca, 0x95, 0x21, 0x3e, 0x85, 0x91, 0x92, 0xbe, 0x18, 0xd4, 0x40, 0xbe,
  0x52, 0x64, 0xae, 0xbe, 0x21, 0xaa, 0x3f, 0x3e, 0x0d, 0x49, 0xb2, 0x3e,
  0x31, 0x4d, 0x61, 0xbd, 0x29, 0x24, 0x99, 0x3c, 0x08, 0x8a, 0x50, 0xbd,
  0x65, 0x21, 0x7b, 0x3d, 0x8f, 0xa7, 0x45, 0xbe, 0x5b, 0x0a, 0x78, 0xbe,
  0x72, 0xa4, 0x2c, 0x3c, 0x2a, 0x48, 0x2a, 0x3e, 0x97, 0x17, 0x49, 0x3e,
  0xc3, 0x70, 0x19, 0x3e, 0xc0, 0x7c, 0xdd, 0x3b, 0x20, 0x1b, 0x24, 0xbe,
  0x97, 0x1a, 0xe0, 0xbd, 0x31, 0xa2, 0x43, 0x3c, 0x1d, 0x41, 0x04, 0x3d,
  0xe8, 0xcb, 0x30, 0x3e, 0x9a, 0xa5, 0x5d, 0xbe, 0xd3, 0xc1, 0x70, 0x3d,
  0x9b, 0xd2, 0xc8, 0xbc, 0xe1, 0x8a, 0x16, 0x3e, 0x43, 0xa7, 0x75, 0x3d,
  0x5a, 0x5f, 0x14, 0x3e, 0x49, 0xcb, 0x21, 0xbd, 0x55, 0x68, 0x84, 0x3e,
  0x18, 0xd6, 0x4e, 0xbd, 0x83, 0xe0, 0x92, 0x3d, 0x3d, 0x09, 0x98, 0x3e,
  0x24, 0xa7, 0xc1, 0x3d, 0x0e, 0x4c, 0x77, 0x3d, 0x5d, 0x3c, 0xee, 0xbd,
  0xa2, 0x7a, 0x99, 0x3d, 0x75, 0xae, 0xdb, 0x3d, 0xf4, 0x72, 0x2b, 0xbe,
  0x76, 0x97, 0xfc, 0x3d, 0xe8, 0x4b, 0x81, 0xbe, 0x7c, 0x9f, 0x02, 0x3f,
  0x22, 0x0f, 0xe2, 0x3c, 0x91, 0xb0, 0xdf, 0x3a, 0x61, 0xcc, 0x53, 0xbe,
  0xa4, 0xf6, 0x64, 0x3e, 0x98, 0x9a, 0x7a, 0xbe, 0x53, 0x83, 0x00, 0xbc,
  0x96, 0x60, 0x0e, 0x3e, 0x79, 0x39, 0x6c, 0x3d, 0xc0, 0x1e, 0xb2, 0x3d,
  0xf1, 0x75, 0xa0, 0xbe, 0x4b, 0xc6, 0xcd, 0xbe, 0x8b, 0xfb, 0x47, 0x3e,
  0x51, 0xff, 0xdf, 0x3d, 0x6c, 0x68, 0x73, 0xbe, 0xf6, 0xf0, 0x55, 0xbe,
  0xc4, 0xa0, 0x44, 0x3e, 0xab, 0xa1, 0xbc, 0x3d, 0x7d, 0xd2, 0x85, 0x3e,
  0x59, 0x7b, 0x8b, 0xbe, 0x79, 0xda, 0xaa, 0x3e, 0x0e, 0xa2, 0x36, 0xbe,
  0x4b, 0xe9, 0x4b, 0x3e, 0x00, 0xab, 0xdd, 0x3e, 0x52, 0x60, 0xa8, 0x3d,
  0xff, 0xca, 0x7a, 0x3d, 0xbe, 0xcc, 0x8a, 0xbe, 0x2b, 0xa4, 0xab, 0xbe,
  0xbc, 0x7c, 0x3d, 0x3e, 0x3c, 0x50, 0xa9, 0x3d, 0xd9, 0x45, 0xcd, 0x3c,
  0x63, 0x8d, 0xaa, 0xbe, 0xc4, 0x6c, 0x91, 0x3e, 0xd1, 0x77, 0x09, 0x3e,
  0x53, 0x8c, 0x13, 0x3e, 0xb6, 0xf8, 0x86, 0xbe, 0xd4, 0x69, 0x90, 0x3e,
  0x5c, 0x4e, 0x4d, 0xbe, 0x34, 0x50, 0x19, 0xbe, 0xd8, 0xc2, 0x7e, 0xbc,
  0x91, 0x78, 0x1a, 0xbc, 0x96, 0x83, 0x53, 0x3d, 0x37, 0xe6, 0xb7, 0xbd,
  0xea, 0xff, 0x1c, 0xbe, 0xfa, 0xbf, 0xea, 0x3d, 0x3a, 0xad, 0x39, 0xbe,
  0xab, 0xb7, 0x33, 0x3e, 0xe1, 0xcb, 0xb2, 0xbe, 0x9a, 0xcc, 0x7b, 0x3e,
  0x29, 0xc7, 0xd9, 0x3d, 0xaf, 0xa8, 0xc5, 0x3e, 0xb5, 0x79, 0xe1, 0xbd,
  0x18, 0x8b, 0x04, 0x3f, 0x46, 0x29, 0x8e, 0xbe, 0x1a, 0xef, 0x90, 0x3e,
  0x08, 0x22, 0x46, 0x3f, 0x7e, 0x17, 0x04, 0x3d, 0x79, 0x10, 0xb5, 0x3c,
  0x00, 0x0e, 0xf5, 0xbd, 0x9c, 0xc4, 0xc8, 0x3c, 0xdc, 0x8f, 0x37, 0x3e,
  0xaa, 0xb6, 0xb1, 0xbe, 0x60, 0xd8, 0x3f, 0x3e, 0x83, 0xae, 0xdf, 0xbe,
  0xf3, 0x75, 0x07, 0x3e, 0xd0, 0x20, 0x0c, 0x3e, 0xcc, 0x3e, 0xf9, 0x3e,
  0xea, 0xcb, 0x5b, 0xbe, 0x7d, 0xbd, 0xf1, 0x3e, 0xba, 0xa6, 0x72, 0xbe,
  0x4b, 0xda, 0xe9, 0x3d, 0x8e, 0x45, 0x53, 0x3f, 0x89, 0xa1, 0xb4, 0x3d,
  0x2b, 0xf7, 0x38, 0x3c, 0x09, 0xd1, 0x16, 0xbe, 0x32, 0x18, 0x30, 0xbe,
  0xa7, 0x7b, 0x32, 0x3e, 0xdf, 0xe1, 0x8f, 0xbe, 0xc2, 0x1e, 0xdb, 0xbd,
  0x48, 0xa5, 0xfc, 0xbe, 0xa2, 0x0e, 0xec, 0x3c, 0x1a, 0x4a, 0x2d, 0x3e,
  0xa2, 0xa4, 0x49, 0x3f, 0x8a, 0x3c, 0x05, 0xbe, 0x01, 0xab, 0xc3, 0x3e,
  0x0b, 0xbd, 0x07, 0x3e, 0xee, 0x93, 0x2c, 0x3e, 0xbf, 0xa1, 0x46, 0x3e,
  0x4e, 0x0a, 0xfe, 0xba, 0x72, 0x59, 0x06, 0x3d, 0xf4, 0xfb, 0xff, 0x3b,
  0xe8, 0x42, 0xef, 0xbd, 0xbd, 0x80, 0x2c, 0x3e, 0xc0, 0x4d, 0x97, 0xbc,
  0x71, 0xe5, 0xad, 0xbe, 0x1d, 0x57, 0x15, 0xbd, 0x35, 0x27, 0x15, 0xbc,
  0x0a, 0x81, 0x54, 0xbd, 0xd2, 0x68, 0x00, 0x3e, 0x3d, 0xda, 0xa9, 0xbd,
  0xa2, 0xd8, 0x96, 0xbe, 0x1c, 0x10, 0x36, 0xbe, 0x27, 0x5c, 0xa7, 0xbe,
  0xaf, 0xeb, 0xe5, 0xbe, 0xc5, 0x32, 0x1a, 0xbd, 0x51, 0x9e, 0x82, 0xbc,
  0xcc, 0x8f, 0x1e, 0x3d, 0x34, 0xa4, 0xf7, 0xbd, 0x92, 0x60, 0x20, 0x3e,
  0x1d, 0xed, 0xbc, 0xbc, 0xa8, 0x62, 0xaa, 0x3d, 0x42, 0xdb, 0xf5, 0x3d,
  0x58, 0xf6, 0xb0, 0x3e, 0x38, 0x19, 0x02, 0x3d, 0xa5, 0x98, 0x9f, 0xbc,
  0x74, 0x90, 0x6a, 0x3d, 0xa0, 0x36, 0xe8, 0x3d, 0xfc, 0x70, 0xf2, 0xbe,
  0x7a, 0xc8, 0xae, 0xbe, 0x1a, 0x6b, 0x66, 0xbd, 0x6c, 0x51, 0x45, 0xbd,
  0xf0, 0x56, 0xac, 0xbb, 0x86, 0xd1, 0xc1, 0xbe, 0x45, 0xa8, 0x77, 0x3d,
  0x7a, 0xb3, 0x18, 0x3e, 0x2b, 0x54, 0x08, 0x3d, 0x06, 0xc1, 0x97, 0x3e,
  0x90, 0xdb, 0xe9, 0x3d, 0x08, 0x23, 0xfa, 0x3e, 0x3c, 0x0c, 0x26, 0x3e,
  0x66, 0xbb, 0x0f, 0xbe, 0xc6, 0xb2, 0x96, 0x3e, 0x55, 0xcc, 0x16, 0x3e,
  0xb0, 0x32, 0xeb, 0xbe, 0xdb, 0xcc, 0xbf, 0xbe, 0x26, 0x0a, 0x83, 0xbe,
  0xbc, 0x32, 0xc2, 0x3d, 0xee, 0x24, 0xd6, 0xbc, 0x1d, 0x04, 0xab, 0xbe,
  0x64, 0x6b, 0xcf, 0x3e, 0x6d, 0x45, 0xa1, 0x3c, 0xde, 0x46, 0x8d, 0x3e,
  0xae, 0xec, 0xd9, 0x3d, 0xba, 0xf1, 0xc9, 0xbc, 0x70, 0x98, 0x5a, 0x3f,
  0x71, 0xac, 0x84, 0x3d, 0xf2, 0x31, 0x62, 0x3d, 0x95, 0x12, 0xa3, 0x3e,
  0x9b, 0x96, 0x77, 0x3e, 0x32, 0xa4, 0xeb, 0xbe, 0xc5, 0x6c, 0x9b, 0xbe,
  0x69, 0x1a, 0x22, 0xbd, 0xf3, 0x6a, 0x5f, 0xbd, 0x23, 0xc2, 0x5f, 0xbc,
  0x0b, 0x7b, 0xea, 0xbe, 0x57, 0xb2, 0x5c, 0x3e, 0x2f, 0x98, 0x1f, 0x3d,
  0x16, 0xd6, 0xa8, 0x3e, 0x8c, 0x73, 0x3c, 0x3e, 0xe4, 0x68, 0x66, 0x3e,
  0xc2, 0x40, 0xd9, 0x3e, 0x8b, 0xc9, 0xa8, 0xbb, 0x9a, 0x61, 0x60, 0x3e,
  0x32, 0x6d, 0x80, 0x3d, 0x1d, 0x1a, 0x06, 0xbe, 0x0c, 0x1f, 0xb5, 0xbe,
  0x1b, 0xef, 0xc6, 0xbe, 0x89, 0x8c, 0x17, 0xbe, 0xad, 0x57, 0x3d, 0x3c,
  0xa8, 0xad, 0x8b, 0xbc, 0x31, 0x48, 0x60, 0xbe, 0xbc, 0xdb, 0x86, 0xbc,
  0xb7, 0x0d, 0xb0, 0x3d, 0xcd, 0x3a, 0x12, 0x3e, 0x10, 0xd3, 0x44, 0x3e,
  0x20, 0x56, 0x54, 0x3e, 0xb7, 0xcd, 0x4f, 0x3f, 0xed, 0xb2, 0x51, 0xbe,
  0xbd, 0xd5, 0xd0, 0xbd, 0x2d, 0xc1, 0x16, 0x3d, 0xd7, 0xc1, 0x15, 0xbe,
  0x94, 0x22, 0xce, 0xbe, 0x05, 0x08, 0xb5, 0xbe, 0xee, 0x7f, 0xfa, 0xbd,
  0xdd, 0xdd, 0x28, 0xbd, 0xbe, 0xa8, 0xb0, 0xbc, 0x62, 0xa1, 0xb1, 0xbe,
  0x68, 0xf2, 0x58, 0xbc, 0x20, 0x47, 0xbd, 0x3d, 0x73, 0x15, 0x08, 0x3e,
  0x20, 0x98, 0xc5, 0x3e, 0xe5, 0x5a, 0xbc, 0x3e, 0x1c, 0x01, 0x5d, 0x3f,
  0x1f, 0xc9, 0x00, 0xbe, 0x1d, 0x1d, 0x68, 0xbe, 0x55, 0x9c, 0x3c, 0x3d,
  0xba, 0xee, 0x8a, 0xbe, 0x8c, 0x4c, 0xa9, 0xbd, 0x51, 0xac, 0x85, 0xbe,
  0x86, 0x6a, 0x14, 0xbe, 0xb3, 0x17, 0xd7, 0x3c, 0xb2, 0x04, 0x35, 0xbd,
  0xb5, 0xbe, 0xe5, 0xbd, 0x2a, 0x49, 0xfd, 0xbc, 0x17, 0xbc, 0x08, 0xbd,
  0xcc, 0x29, 0x93, 0x3c, 0x86, 0xa4, 0x11, 0x3e, 0x4d, 0x9b, 0x5a, 0x3c,
  0x6e, 0x87, 0x41, 0xbd, 0x8d, 0x93, 0xf4, 0x3c, 0xbd, 0xee, 0x08, 0xbe,
  0xa9, 0x4a, 0xec, 0x3c, 0x04, 0x96, 0xe4, 0x3d, 0x17, 0x96, 0x83, 0xbe,
  0x07, 0xaf, 0x13, 0x3d, 0x89, 0xdc, 0x65, 0x3e, 0x47, 0x28, 0x2b, 0x3d,
  0x01, 0x9a, 0xad, 0x3c, 0x7b, 0x60, 0x45, 0xbe, 0xbf, 0x71, 0x3c, 0x3d,
  0x34, 0x69, 0xeb, 0xbd, 0x78, 0x3b, 0x8b, 0x3c, 0x92, 0xfc, 0x3f, 0xbe,
  0x16, 0x67, 0xe4, 0xbc, 0x8b, 0xbd, 0x07, 0x3f, 0xbd, 0xdd, 0x61, 0xbe,
  0x9f, 0x65, 0xc2, 0xbe, 0xaa, 0x5e, 0x1a, 0xbe, 0xda, 0x79, 0xb7, 0xbe,
  0xdf, 0x11, 0x49, 0xbe, 0xbf, 0x1e, 0x52, 0xbe, 0x98, 0x19, 0x74, 0x3c,
  0x1e, 0x4f, 0xb2, 0x3d, 0x76, 0x94, 0xb0, 0x3c, 0xf9, 0x20, 0xfa, 0xbd,
  0x94, 0x1b, 0x4b, 0xbd, 0xeb, 0xf2, 0xf8, 0x3b, 0x44, 0x3a, 0x0a, 0x3d,
  0xd7, 0x35, 0x99, 0xbe, 0x8c, 0xe9, 0x0f, 0x3e, 0xa6, 0xf5, 0x25, 0x3d,
  0xdc, 0xaf, 0x78, 0xbe, 0x5b, 0x82, 0x98, 0xbe, 0x85, 0xfc, 0xb6, 0xbd,
  0x0b, 0xda, 0x91, 0xbe, 0x5e, 0xf7, 0x9f, 0xbe, 0x46, 0x1d, 0x35, 0xbf,
  0xc0, 0x17, 0x1e, 0xbe, 0x14, 0xa6, 0x0c, 0xbd, 0xbf, 0xd0, 0x72, 0x3d,
  0xd2, 0x40, 0x2f, 0xbe, 0xd4, 0x97, 0x91, 0xbe, 0x65, 0x72, 0x3e, 0xbe,
  0xa2, 0x40, 0x27, 0xbe, 0x6d, 0x67, 0xd4, 0xbe, 0x4c, 0x08, 0x5b, 0xbd,
  0xcb, 0xee, 0x9f, 0x3e, 0x4c, 0xef, 0xa5, 0xbe, 0x7a, 0xc1, 0x4d, 0xbe,
  0xe4, 0x10, 0x76, 0xbd, 0x79, 0x1b, 0x8f, 0xbd, 0xf0, 0x5e, 0x87, 0xbe,
  0x99, 0xc7, 0x49, 0xbf, 0x59, 0xe6, 0x5f, 0x3d, 0x76, 0x26, 0x4c, 0xbd,
  0x76, 0x7e, 0x67, 0x3d, 0x55, 0x81, 0xf8, 0xbd, 0x39, 0x42, 0x39, 0xbe,
  0xce, 0x7f, 0xef, 0x3c, 0xa0, 0x9c, 0x13, 0xbe, 0x61, 0x8c, 0xd2, 0xbe,
  0x3a, 0xc6, 0x0d, 0xbd, 0x73, 0x6e, 0xf4, 0x3d, 0xa9, 0x79, 0x47, 0xbe,
  0x05, 0x70, 0xa5, 0xbe, 0x62, 0x77, 0x83, 0xbc, 0x61, 0xcf, 0xb4, 0x3e,
  0x96, 0x3d, 0xf0, 0xbd, 0xf3, 0xe5, 0xf7, 0xbd, 0xf0, 0x25, 0x92, 0x3e,
  0x84, 0x56, 0xbc, 0x3d, 0xb2, 0x10, 0xd8, 0x3c, 0xd9, 0xdf, 0x0c, 0xbe,
  0xe7, 0xd5, 0x99, 0xbd, 0x10, 0xcb, 0x49, 0x3d, 0xbe, 0xb0, 0xe4, 0xbc,
  0xf1, 0x68, 0x47, 0x3e, 0xac, 0x19, 0xe1, 0xbd, 0x78, 0xf8, 0x88, 0xbd,
  0xf6, 0x6f, 0x3d, 0x3e, 0x8a, 0x57, 0x85, 0x3d, 0xbf, 0x9b, 0xee, 0x3b,
  0x2d, 0xfe, 0xc4, 0x3e, 0x9f, 0xa9, 0x5c, 0xbe, 0x1f, 0x38, 0xe1, 0x3c,
  0x88, 0xb7, 0x7f, 0x3e, 0x5a, 0x84, 0x01, 0x3d, 0x91, 0x64, 0x2d, 0x3d,
  0x5b, 0x9a, 0x31, 0xbe, 0x31, 0x9c, 0x59, 0x3d, 0x19, 0x04, 0xf5, 0x3c,
  0x0c, 0x50, 0xe4, 0x3b, 0x07, 0x3a, 0x44, 0x3e, 0xc8, 0xc6, 0x27, 0xbe,
  0x45, 0x26, 0x48, 0xbd, 0xee, 0xa1, 0x60, 0x3e, 0x1f, 0x71, 0x45, 0x3f,
  0x26, 0x31, 0x29, 0x3b, 0x5c, 0x00, 0x32, 0x3e, 0x03, 0xf3, 0x79, 0xbc,
  0x6e, 0x6a, 0x07, 0x3e, 0x89, 0x24, 0x75, 0x3d, 0x3d, 0x0f, 0x03, 0xbe,
  0x4c, 0xf8, 0x93, 0x3c, 0xbb, 0x50, 0x09, 0xbe, 0x5e, 0x30, 0x36, 0x3e,
  0x87, 0xc5, 0x3e, 0x3d, 0x7b, 0x23, 0x47, 0xbd, 0x00, 0xfe, 0x15, 0x3e,
  0x45, 0x87, 0x3b, 0x3c, 0x0d, 0xc1, 0x11, 0x3c, 0xb1, 0x35, 0xe9, 0xbe,
  0x0a, 0x79, 0x54, 0x3d, 0xce, 0x7f, 0x48, 0xbe, 0xfe, 0x6d, 0x7c, 0xbc,
  0x0c, 0x20, 0x02, 0xbd, 0xb3, 0x96, 0xa2, 0xbd, 0x7a, 0xa6, 0x85, 0xbd,
  0x5a, 0xfd, 0x4a, 0xbe, 0xc2, 0xb0, 0x8a, 0xbe, 0x4b, 0x9e, 0xd1, 0x3b,
  0xa7, 0x73, 0xbf, 0xbe, 0xd2, 0x52, 0x00, 0xbb, 0x21, 0xbc, 0x71, 0x3e,
  0x58, 0xa0, 0xb3, 0x3d, 0xbd, 0xec, 0xa9, 0x3d, 0xb0, 0x08, 0x15, 0x3d,
  0xcc, 0x51, 0xb9, 0xbd, 0x70, 0xf7, 0xb6, 0x3d, 0x04, 0x99, 0x43, 0xbe,
  0xd7, 0xc7, 0x4e, 0xbe, 0x28, 0xda, 0x9e, 0xbe, 0xb3, 0x62, 0xe9, 0x3d,
  0x9b, 0xf1, 0xbc, 0x3b, 0x49, 0x1b, 0x14, 0x3d, 0xa4, 0x48, 0x8f, 0xbe,
  0x23, 0x87, 0xaa, 0x3d, 0x99, 0xbf, 0x86, 0xbd, 0x5c, 0xc5, 0x91, 0x3d,
  0x6e, 0x1e, 0x36, 0xbe, 0x53, 0x5a, 0x11, 0x3e, 0xbb, 0xc2, 0x55, 0x3e,
  0x95, 0x6c, 0xbb, 0x3c, 0xd4, 0x39, 0xf6, 0xbc, 0x3a, 0x81, 0xf8, 0xbd,
  0x9e, 0x26, 0xe8, 0xbd, 0xf7, 0xa3, 0x35, 0x3e, 0x4a, 0x48, 0x23, 0x3d,
  0xb4, 0xa6, 0xf7, 0xbd, 0x99, 0x56, 0xd3, 0x3d, 0x15, 0x85, 0x11, 0xbe,
  0x4a, 0x73, 0xae, 0xbe, 0x1e, 0x1e, 0x45, 0xbd, 0x78, 0x8a, 0xcb, 0x3d,
  0x7a, 0x1b, 0xe6, 0x3d, 0xb5, 0x11, 0x6d, 0xbe, 0xc5, 0x5b, 0x31, 0x3e,
  0xca, 0x35, 0x38, 0x3e, 0x1a, 0x43, 0xf7, 0xbd, 0x24, 0xf1, 0x44, 0xbe,
  0xdb, 0xa2, 0x4c, 0xbe, 0x97, 0x5f, 0xba, 0x3c, 0xfd, 0xdd, 0x4d, 0x3d,
  0x25, 0xa3, 0x83, 0xbd, 0xb2, 0x36, 0x00, 0x3c, 0x12, 0x9e, 0x10, 0x3e,
  0x06, 0x5f, 0x32, 0xbe, 0xb0, 0xa1, 0x51, 0xbe, 0x6f, 0x35, 0x8b, 0x3c,
  0xa0, 0xa1, 0x1a, 0xbe, 0x9d, 0x5f, 0x0f, 0x3e, 0xc8, 0x5e, 0xee, 0xbc,
  0x13, 0x5e, 0xf1, 0xbd, 0x58, 0x37, 0x4f, 0xbe, 0x11, 0xfd, 0x35, 0xbe,
  0x9e, 0x61, 0x6d, 0xbe, 0x7a, 0xcf, 0x25, 0xbe, 0xcb, 0x6c, 0xd1, 0x3c,
  0xa1, 0x0f, 0x1b, 0xbe, 0x71, 0x3b, 0x1b, 0xbd, 0x15, 0x49, 0x0c, 0x3e,
  0x1a, 0x23, 0x43, 0xbe, 0x21, 0x72, 0x03, 0x3e, 0xd1, 0x8d, 0xba, 0xbd,
  0xc3, 0x46, 0x01, 0xbc, 0x65, 0x29, 0x8e, 0xbe, 0x6a, 0xa1, 0xba, 0x3d,
  0x01, 0x4e, 0xf2, 0x3d, 0x2f, 0xc4, 0xc6, 0x3b, 0xbe, 0x5c, 0x31, 0x3d,
  0xa3, 0xff, 0xa5, 0xbc, 0x89, 0x0e, 0x51, 0xbd, 0xa5, 0xde, 0xfc, 0x3d,
  0x89, 0x4d, 0xd0, 0x3c, 0x60, 0x6a, 0x99, 0xbd, 0xb5, 0xab, 0x57, 0xbe,
  0x30, 0x98, 0x13, 0xbe, 0x5e, 0xf0, 0x80, 0x3d, 0xd7, 0xfb, 0x8f, 0x3d,
  0x52, 0x2e, 0x72, 0xbe, 0x2d, 0x5d, 0x4f, 0xbd, 0xc8, 0xa2, 0x4b, 0xbe,
  0xe3, 0x73, 0x6c, 0xbe, 0x5b, 0x58, 0x08, 0xbd, 0x26, 0xf9, 0x27, 0x3e,
  0x9a, 0x88, 0x86, 0x3c, 0x6c, 0x0f, 0x86, 0xbe, 0x1d, 0x39, 0x34, 0x3d,
  0x0e, 0xd9, 0xd7, 0x3d, 0x43, 0xea, 0x93, 0x3d, 0xd5, 0x6c, 0x36, 0xbe,
  0x68, 0x42, 0x38, 0xbd, 0x14, 0xdc, 0x72, 0xbe, 0x14, 0xdb, 0xfc, 0xbc,
  0xd3, 0xb3, 0x33, 0xbd, 0x8b, 0x6e, 0x86, 0xbe, 0xf6, 0x45, 0x9b, 0xbd,
  0xdd, 0xb2, 0xbe, 0xbc, 0x79, 0xaf, 0xa4, 0xbd, 0xb8, 0xcd, 0x1b, 0xbe,
  0x1a, 0x5c, 0xe0, 0x3b, 0x43, 0x9f, 0xdc, 0xbc, 0xd3, 0x5d, 0x75, 0xbe,
  0x18, 0xc5, 0x0c, 0xbe, 0x57, 0x4e, 0xe3, 0xbd, 0x4c, 0xf1, 0xa6, 0x3d,
  0x16, 0x1f, 0x85, 0xbe, 0x71, 0xe5, 0x1c, 0xbe, 0x2c, 0xac, 0xa2, 0xbe,
  0x52, 0x40, 0xc9, 0xbe, 0xb7, 0x3d, 0xb4, 0xbb, 0xfd, 0x5c, 0x4f, 0xbc,
  0x19, 0xea, 0x14, 0xbf, 0xb8, 0x5b, 0x73, 0xbe, 0xc5, 0x45, 0xb0, 0xbe,
  0xa4, 0x50, 0x75, 0x3d, 0x24, 0x99, 0xfe, 0x3b, 0xbc, 0x4e, 0x85, 0x3e,
  0xf9, 0xc8, 0xc4, 0xbd, 0xbc, 0xca, 0x13, 0xbe, 0xc9, 0x07, 0x89, 0xbe,
  0x11, 0xfb, 0x44, 0x3e, 0x23, 0x96, 0xee, 0x3d, 0xfc, 0x0b, 0x97, 0xbd,
  0x9a, 0x1a, 0xb6, 0xbe, 0xdb, 0x29, 0x5d, 0xbe, 0xe4, 0xfb, 0x04, 0x3d,
  0x1d, 0xc7, 0x43, 0xbd, 0x8e, 0xc2, 0xf6, 0xbc, 0xef, 0x4c, 0xf9, 0x3d,
  0x5b, 0xa1, 0xb6, 0xbe, 0xf9, 0x2a, 0xfd, 0x3d, 0xb4, 0x87, 0x68, 0x3e,
  0x5f, 0x1b, 0x0a, 0x3e, 0x68, 0x77, 0x8c, 0x3e, 0xcd, 0x95, 0x44, 0xbd,
  0x6d, 0x53, 0x1f, 0xbe, 0xd3, 0xae, 0x0d, 0x3e, 0x9d, 0xa6, 0x9a, 0x3c,
  0x73, 0xbb, 0x92, 0xbe, 0xa6, 0x48, 0xc7, 0xbe, 0x34, 0xf3, 0x4b, 0xbd,
  0xd2, 0x4a, 0x03, 0x3e, 0xd5, 0x5e, 0x6f, 0xbb, 0x66, 0x4c, 0xb6, 0x3d,
  0xbf, 0x18, 0x84, 0x3d, 0xc8, 0xbb, 0x92, 0xbe, 0xc2, 0xfd, 0x1a, 0x3d,
  0x8a, 0x78, 0x8e, 0x3e, 0xa6, 0x4a, 0x3e, 0x3e, 0x83, 0x27, 0x20, 0x3d,
  0x0c, 0x38, 0x4c, 0xbe, 0x19, 0xdc, 0x76, 0xbe, 0xd0, 0x43, 0x22, 0x3e,
  0xcf, 0xbb, 0x06, 0xbc, 0xff, 0x5a, 0xe4, 0xbb, 0x82, 0xd4, 0xae, 0xbe,
  0xf7, 0x57, 0x67, 0xbe, 0x25, 0x6d, 0x79, 0x3d, 0x6f, 0xb8, 0x6c, 0x3b,
  0x8d, 0x44, 0xba, 0xbd, 0xbf, 0x1d, 0xca, 0xbd, 0x2e, 0x47, 0x85, 0xbd,
  0xd5, 0x85, 0x59, 0x3e, 0xb4, 0x54, 0x86, 0x3d, 0x3a, 0xba, 0xcd, 0x3d,
  0x4c, 0x3a, 0x99, 0xbb, 0x83, 0xbd, 0x5d, 0xbe, 0xb4, 0x59, 0xd6, 0xbe,
  0x0d, 0xa0, 0x36, 0x3e, 0xc1, 0x68, 0xa3, 0xbe, 0xa3, 0x50, 0x33, 0xbe,
  0x3a, 0x8d, 0xf2, 0xbe, 0x75, 0xfb, 0x89, 0xbe, 0xd8, 0x9d, 0xe0, 0x3c,
  0x43, 0x3e, 0x37, 0xbd, 0xae, 0x18, 0x9a, 0x3d, 0x74, 0xa9, 0x51, 0xbe,
  0x0e, 0xc1, 0x63, 0xbd, 0xb7, 0xb0, 0x8e, 0x3e, 0xbe, 0x85, 0xad, 0x3e,
  0xf2, 0x29, 0xad, 0x3e, 0x93, 0xc8, 0x81, 0x3c, 0x0b, 0xcd, 0x9d, 0x39,
  0xe5, 0x4a, 0x40, 0xbe, 0x23, 0x39, 0xbf, 0x3d, 0x6a, 0x1e, 0x17, 0xbe,
  0xf7, 0x11, 0xa3, 0xbe, 0x80, 0x79, 0xbb, 0xbe, 0x9c, 0x77, 0x42, 0xbe,
  0xa9, 0xc1, 0x03, 0x3d, 0xc2, 0x8d, 0x77, 0xbc, 0x66, 0x7b, 0xb1, 0xbd,
  0x4b, 0xda, 0xac, 0xbc, 0x43, 0xcd, 0xc3, 0xbd, 0x10, 0x5e, 0x7c, 0x3e,
  0xf1, 0x9d, 0x9b, 0x3e, 0x54, 0x19, 0x68, 0x3d, 0x2d, 0xa0, 0x90, 0xbe,
  0x1c, 0x55, 0x1f, 0x3e, 0x44, 0x3c, 0x49, 0x3e, 0x58, 0x67, 0x02, 0x3d,
  0xc6, 0xcc, 0xed, 0x3c, 0x89, 0x77, 0x63, 0xbd, 0xdc, 0xc9, 0x8e, 0x3e,
  0x65, 0x7d, 0xa4, 0x3d, 0xe3, 0x33, 0x31, 0xbc, 0x81, 0x6e, 0x04, 0x3d,
  0x52, 0x8b, 0x51, 0xbe, 0x56, 0xc8, 0xaa, 0x3c, 0x00, 0x40, 0xc8, 0xbd,
  0x65, 0xfe, 0xad, 0x3c, 0x54, 0x6d, 0x33, 0xbe, 0x5e, 0x82, 0x08, 0xbe,
  0x9a, 0xa0, 0xff, 0x3c, 0xb5, 0xc7, 0xa8, 0xbe, 0x10, 0x25, 0xf2, 0xbc,
  0xfa, 0x11, 0x36, 0xbd, 0xe2, 0xd7, 0x1d, 0xbe, 0x8f, 0x18, 0xf7, 0xbd,
  0xa5, 0xc3, 0x35, 0xbe, 0x9c, 0xff, 0x65, 0xbe, 0x0d, 0xc2, 0x4d, 0xbe,
  0x34, 0x20, 0x91, 0xbe, 0xdc, 0x33, 0x8b, 0x3d, 0xcd, 0x28, 0xfe, 0xbb,
  0x05, 0xcd, 0xef, 0x3e, 0x7a, 0x6e, 0x53, 0xbe, 0xff, 0x99, 0xac, 0x3d,
  0x7f, 0xf8, 0xf4, 0xbc, 0x83, 0x30, 0x73, 0xbd, 0x11, 0x92, 0x04, 0xbe,
  0xf0, 0xab, 0x30, 0x3e, 0x35, 0x0b, 0x95, 0x3e, 0xc1, 0x52, 0x03, 0x3f,
  0x10, 0xbf, 0x99, 0xbd, 0x33, 0x6a, 0xf8, 0x3c, 0x88, 0xba, 0x5d, 0xbd,
  0xd0, 0xe0, 0x0e, 0xbe, 0xfd, 0xad, 0xe4, 0xbe, 0xa2, 0x99, 0x2d, 0x3d,
  0xe3, 0x76, 0x11, 0xbe, 0xb5, 0xb1, 0xc1, 0x3e, 0xc8, 0x6e, 0x7a, 0x3e,
  0xff, 0x3f, 0x9b, 0xbd, 0xcb, 0x3b, 0xa9, 0x3b, 0x4b, 0x9d, 0x12, 0x3e,
  0x67, 0x06, 0xb0, 0xbe, 0x16, 0xcb, 0x4a, 0x3d, 0x48, 0x90, 0x47, 0x3e,
  0x82, 0x4f, 0x2b, 0xbd, 0x9e, 0x35, 0x2f, 0xbe, 0x6a, 0x29, 0x69, 0x3e,
  0x39, 0xb6, 0x2b, 0x3e, 0xfd, 0x78, 0x0f, 0xbe, 0x79, 0xb6, 0xdf, 0xbe,
  0x0b, 0x5a, 0x61, 0xbd, 0x03, 0x7b, 0xb2, 0xbd, 0xeb, 0xd1, 0x35, 0x3e,
  0x83, 0x4b, 0x2a, 0x3e, 0x01, 0x0f, 0x33, 0xbe, 0x5f, 0x38, 0x8b, 0xbe,
  0x6d, 0x5c, 0x66, 0x3c, 0x7b, 0x7c, 0x34, 0xbe, 0x6b, 0xf7, 0x30, 0x3e,
  0x29, 0x6b, 0xb3, 0xbb, 0xb4, 0x0d, 0x03, 0xbe, 0xc3, 0x97, 0x02, 0xbd,
  0xa5, 0x75, 0x51, 0x3c, 0x27, 0x88, 0x9c, 0x3d, 0x00, 0x50, 0x8b, 0xbe,
  0xf5, 0x2d, 0x1e, 0xbf, 0x6a, 0x91, 0xba, 0xbd, 0x3e, 0xa1, 0xf2, 0x3d,
  0x8c, 0x9d, 0x85, 0x3d, 0xa9, 0xc7, 0x3e, 0x3c, 0xef, 0xcf, 0xda, 0x3d,
  0x03, 0x6b, 0x1d, 0xbe, 0x92, 0x3c, 0xda, 0x3d, 0x3f, 0xff, 0x33, 0xbe,
  0x26, 0x1a, 0xdf, 0xbc, 0xbe, 0x12, 0x8a, 0x3d, 0xe4, 0x3b, 0xeb, 0xbc,
  0x95, 0x2f, 0x61, 0x3c, 0xaf, 0xc3, 0x10, 0x3e, 0xb2, 0x47, 0xfb, 0x3c,
  0xa6, 0x94, 0xb1, 0xbe, 0xf5, 0xe7, 0xdb, 0xbe, 0x45, 0x69, 0x33, 0x3d,
  0x95, 0x69, 0x4e, 0x3d, 0x4f, 0x80, 0x88, 0x3e, 0x68, 0xdc, 0x90, 0x3d,
  0x82, 0x41, 0x69, 0x3e, 0x5a, 0x17, 0x62, 0xbd, 0x8e, 0x96, 0x4c, 0x3e,
  0x72, 0xac, 0xb6, 0xbe, 0xf7, 0x8c, 0xcd, 0xbc, 0x7a, 0x07, 0x99, 0xbd,
  0x5d, 0x75, 0x92, 0x3e, 0xf1, 0x3c, 0xa0, 0xbc, 0x17, 0x50, 0x1b, 0x3e,
  0x6f, 0x6f, 0x1e, 0xbe, 0x76, 0x15, 0x58, 0xbe, 0x21, 0xe1, 0x96, 0xbe,
  0xe7, 0x6f, 0xc5, 0xbd, 0xf0, 0xed, 0xed, 0x3c, 0xf6, 0x6f, 0xcf, 0x3e,
  0x1d, 0x7d, 0x0e, 0x3e, 0x63, 0x13, 0x92, 0xbd, 0x78, 0x98, 0x89, 0xbd,
  0x19, 0x1a, 0xc2, 0x3e, 0xaf, 0x4d, 0xf2, 0x3d, 0x04, 0x95, 0x19, 0x3e,
  0x4d, 0xf9, 0xb3, 0x3d, 0x0d, 0xe1, 0x4d, 0x3c, 0x52, 0xfa, 0x88, 0x3d,
  0x55, 0xae, 0x05, 0x3d, 0xe9, 0x09, 0x46, 0x3d, 0x59, 0x7b, 0xda, 0x3c,
  0x64, 0x78, 0x7f, 0xbe, 0x0f, 0x83, 0xf6, 0xbd, 0xa3, 0x42, 0x6c, 0xbe,
  0x4d, 0x9e, 0x26, 0x3e, 0x51, 0x9b, 0x4f, 0xbe, 0x63, 0xb1, 0xda, 0xbd,
  0x45, 0x13, 0x4c, 0xbe, 0x6e, 0x3d, 0x3f, 0x3e, 0x28, 0x60, 0xc8, 0x3d,
  0x22, 0x95, 0x95, 0xbe, 0xa1, 0xd6, 0x2a, 0xbe, 0x33, 0x53, 0xf8, 0x3b,
  0xa1, 0xe0, 0x00, 0xbe, 0x1e, 0x6e, 0x41, 0xbe, 0x30, 0x6f, 0x85, 0x3d,
  0xbd, 0xfc, 0x81, 0x3e, 0xb2, 0xd1, 0xfc, 0xbd, 0x63, 0x98, 0xa4, 0xbc,
  0x2b, 0x10, 0xb0, 0xbc, 0x45, 0x3d, 0xf5, 0x3e, 0xe9, 0x3d, 0x0b, 0xbf,
  0x2e, 0x84, 0x31, 0x3e, 0xc6, 0xa6, 0xac, 0xbe, 0x36, 0xa7, 0x30, 0xbe,
  0x8b, 0xba, 0xae, 0x3e, 0x3d, 0x94, 0xf8, 0x3e, 0xb3, 0x04, 0xbc, 0xbc,
  0x73, 0xfe, 0x53, 0x3d, 0x24, 0x82, 0x41, 0xbe, 0xbf, 0xb3, 0x8f, 0x3e,
  0xa9, 0x93, 0xa5, 0x3d, 0xdd, 0xba, 0xe4, 0x3d, 0xe4, 0xa7, 0x64, 0x3c,
  0xd3, 0xc6, 0xd3, 0xbd, 0x24, 0xfa, 0x16, 0x3e, 0x6d, 0x57, 0xc0, 0x3e,
  0x62, 0x0d, 0x29, 0xbe, 0xaf, 0xcb, 0x6e, 0xbe, 0xed, 0x12, 0x96, 0xbe,
  0x14, 0x1e, 0x05, 0xbd, 0x9f, 0x6d, 0xf3, 0x3d, 0xd6, 0x7a, 0xde, 0x3e,
  0x56, 0xa7, 0xbc, 0x3c, 0x26, 0x05, 0xe2, 0x3d, 0xb2, 0x1a, 0xff, 0xbd,
  0x64, 0x34, 0x47, 0x3e, 0x9f, 0x87, 0x0f, 0x3d, 0x87, 0x8c, 0x56, 0x3c,
  0x8d, 0x12, 0x56, 0xbe, 0x72, 0x2d, 0x31, 0x3d, 0xac, 0x17, 0x02, 0x3e,
  0x98, 0x3d, 0x05, 0x3f, 0x5a, 0x64, 0x0d, 0x3e, 0xf4, 0x00, 0xc4, 0xbd,
  0xc7, 0xbd, 0xc0, 0xbd, 0x28, 0x4a, 0x3f, 0x3e, 0x0c, 0xa8, 0x5e, 0x3b,
  0x39, 0x0e, 0x23, 0x3e, 0x3e, 0x71, 0x12, 0x3b, 0x4e, 0xd8, 0x7d, 0x3e,
  0x24, 0xbd, 0x44, 0xbd, 0xce, 0x85, 0x8d, 0x3e, 0x32, 0x08, 0xe3, 0x3d,
  0x1e, 0x65, 0x5b, 0x3d, 0x12, 0x41, 0x99, 0xbe, 0x23, 0xee, 0x78, 0x3c,
  0x5f, 0xdc, 0x27, 0x3e, 0x3b, 0xed, 0x90, 0x3e, 0x5d, 0x1c, 0x99, 0x3d,
  0x98, 0x96, 0xd3, 0x3d, 0x72, 0x67, 0x6c, 0xbd, 0xa1, 0x5d, 0x8d, 0x3d,
  0x0f, 0xf5, 0x8c, 0x3d, 0x23, 0x4a, 0x21, 0x3e, 0xd9, 0x5f, 0x1c, 0xbe,
  0xee, 0x3a, 0x21, 0x3c, 0xba, 0xc3, 0xfe, 0xbd, 0x93, 0x88, 0x6e, 0x3d,
  0xd9, 0x72, 0xa4, 0xbc, 0x51, 0x5d, 0x04, 0x3e, 0x73, 0x0c, 0x85, 0xbe,
  0xe0, 0xc5, 0x29, 0xbd, 0x14, 0x69, 0xa9, 0x3d, 0x79, 0x99, 0xe4, 0x3e,
  0xb0, 0x50, 0x35, 0xbd, 0x47, 0x38, 0xb4, 0x3c, 0xa4, 0x71, 0x21, 0xbe,
  0x49, 0xdf, 0x26, 0x3e, 0x43, 0x4f, 0x21, 0x3e, 0xf3, 0x70, 0xa6, 0x3e,
  0xb3, 0xb0, 0x70, 0xbd, 0x7e, 0xc5, 0x26, 0x3c, 0xbd, 0x50, 0x3f, 0xbe,
  0x0d, 0x88, 0x1c, 0x3e, 0xaa, 0x13, 0xae, 0x3d, 0x44, 0x11, 0xe4, 0x3c,
  0xc4, 0x56, 0x7f, 0xbe, 0x38, 0x3f, 0xc8, 0xb9, 0xb0, 0xa0, 0xc9, 0xbc,
  0xb7, 0xe7, 0x0b, 0x3e, 0xd6, 0xfb, 0x01, 0xbe, 0xfd, 0xbf, 0x4e, 0xbe,
  0x6d, 0x4a, 0xf0, 0xbc, 0x1c, 0x68, 0xf3, 0x3e, 0x7f, 0x3e, 0xc0, 0x3d,
  0xa6, 0x08, 0x82, 0xbe, 0xea, 0x61, 0x86, 0x3c, 0x5d, 0xfc, 0x9f, 0xbc,
  0x64, 0x00, 0xba, 0x3b, 0x93, 0x00, 0x17, 0x3e, 0xdd, 0xa7, 0x8d, 0xbc,
  0x38, 0x68, 0x8c, 0x3d, 0x39, 0x10, 0x9b, 0x3d, 0x67, 0x24, 0x98, 0x3c,
  0xed, 0x7d, 0x3b, 0x3d, 0xa6, 0x4f, 0x3b, 0x3c, 0x7d, 0x37, 0x18, 0xbe,
  0x23, 0x86, 0xc1, 0xbc, 0x41, 0xb1, 0x16, 0xbc, 0x38, 0x65, 0xf2, 0x3d,
  0x46, 0xfe, 0xff, 0xff, 0x10, 0x00, 0x00, 0x00, 0x05, 0x00, 0x00, 0x00,
  0x14, 0x00, 0x00, 0x00, 0x2c, 0x00, 0x00, 0x00, 0x02, 0x00, 0x00, 0x00,
  0x10, 0x00, 0x00, 0x00, 0x70, 0x00, 0x00, 0x00, 0x17, 0x00, 0x00, 0x00,
  0x73, 0x65, 0x71, 0x75, 0x65, 0x6e, 0x74, 0x69, 0x61, 0x6c, 0x2f, 0x64,
  0x65, 0x6e, 0x73, 0x65, 0x2f, 0x4d, 0x61, 0x74, 0x4d, 0x75, 0x6c, 0x00,
  0x34, 0xfe, 0xff, 0xff, 0x2a, 0xff, 0xff, 0xff, 0x04, 0x00, 0x00, 0x00,
  0x08, 0x00, 0x00, 0x00, 0xff, 0xff, 0xff, 0xff, 0x70, 0x00, 0x00, 0x00,
  0x00, 0x00, 0x0e, 0x00, 0x18, 0x00, 0x08, 0x00, 0x07, 0x00, 0x0c, 0x00,
  0x10, 0x00, 0x14, 0x00, 0x0e, 0x00, 0x00, 0x00, 0x00, 0x00, 0x00, 0x02,
  0x10, 0x00, 0x00, 0x00, 0x04, 0x00, 0x00, 0x00, 0x10, 0x00, 0x00, 0x00,
  0x2c, 0x00, 0x00, 0x00, 0x01, 0x00, 0x00, 0x00, 0x02, 0x00, 0x00, 0x00,
  0x18, 0x00, 0x00, 0x00, 0x73, 0x65, 0x71, 0x75, 0x65, 0x6e, 0x74, 0x69,
  0x61, 0x6c, 0x2f, 0x66, 0x6c, 0x61, 0x74, 0x74, 0x65, 0x6e, 0x2f, 0x43,
  0x6f, 0x6e, 0x73, 0x74, 0x00, 0x00, 0x00, 0x00, 0x9c, 0xfe, 0xff, 0xff,
  0x92, 0xff, 0xff, 0xff, 0x04, 0x00, 0x00, 0x00, 0x10, 0x00, 0x00, 0x00,
  0x04, 0x0b, 0xcb, 0x3e, 0x98, 0xf8, 0x90, 0xc0, 0xe6, 0x91, 0xed, 0x3c,
  0x32, 0x38, 0x8e, 0x3f, 0x0a, 0xff, 0xff, 0xff, 0x10, 0x00, 0x00, 0x00,
  0x03, 0x00, 0x00, 0x00, 0x10, 0x00, 0x00, 0x00, 0x3c, 0x00, 0x00, 0x00,
  0x01, 0x00, 0x00, 0x00, 0x04, 0x00, 0x00, 0x00, 0x29, 0x00, 0x00, 0x00,
  0x73, 0x65, 0x71, 0x75, 0x65, 0x6e, 0x74, 0x69, 0x61, 0x6c, 0x2f, 0x64,
  0x65, 0x6e, 0x73, 0x65, 0x5f, 0x31, 0x2f, 0x42, 0x69, 0x61, 0x73, 0x41,
  0x64, 0x64, 0x2f, 0x52, 0x65, 0x61, 0x64, 0x56, 0x61, 0x72, 0x69, 0x61,
  0x62, 0x6c, 0x65, 0x4f, 0x70, 0x00, 0x00, 0x00, 0x60, 0xff, 0xff, 0xff,
  0x00, 0x00, 0x06, 0x00, 0x08, 0x00, 0x04, 0x00, 0x06, 0x00, 0x00, 0x00,
  0x04, 0x00, 0x00, 0x00, 0x40, 0x00, 0x00, 0x00, 0x7b, 0x7d, 0x48, 0x40,
  0x76, 0x2f, 0xa2, 0xbe, 0x5a, 0x65, 0xe6, 0xbf, 0xf7, 0x64, 0x47, 0xbe,
  0xa0, 0x89, 0x84, 0xbe, 0x7f, 0x22, 0x36, 0xbf, 0xbd, 0x87, 0xd1, 0xbf,
  0x8a, 0x18, 0x22, 0xbf, 0x38, 0xfd, 0x29, 0xbf, 0x1d, 0x4c, 0x2a, 0xbe,
  0xf5, 0x0f, 0x41, 0x40, 0x3d, 0xba, 0xc3, 0xbf, 0x29, 0xea, 0xcc, 0xbe,
  0xd6, 0xaf, 0x87, 0xbf, 0x60, 0xf6, 0x8a, 0xbd, 0x64, 0xa7, 0x94, 0xbf,
  0xae, 0xff, 0xff, 0xff, 0x10, 0x00, 0x00, 0x00, 0x02, 0x00, 0x00, 0x00,
  0x10, 0x00, 0x00, 0x00, 0x3c, 0x00, 0x00, 0x00, 0x01, 0x00, 0x00, 0x00,
  0x10, 0x00, 0x00, 0x00, 0x27, 0x00, 0x00, 0x00, 0x73, 0x65, 0x71, 0x75,
  0x65, 0x6e, 0x74, 0x69, 0x61, 0x6c, 0x2f, 0x64, 0x65, 0x6e, 0x73, 0x65,
  0x2f, 0x42, 0x69, 0x61, 0x73, 0x41, 0x64, 0x64, 0x2f, 0x52, 0x65, 0x61,
  0x64, 0x56, 0x61, 0x72, 0x69, 0x61, 0x62, 0x6c, 0x65, 0x4f, 0x70, 0x00,
  0x04, 0x00, 0x06, 0x00, 0x04, 0x00, 0x00, 0x00, 0x00, 0x00, 0x0e, 0x00,
  0x14, 0x00, 0x04, 0x00, 0x00, 0x00, 0x08, 0x00, 0x0c, 0x00, 0x10, 0x00,
  0x0e, 0x00, 0x00, 0x00, 0x10, 0x00, 0x00, 0x00, 0x01, 0x00, 0x00, 0x00,
  0x1c, 0x00, 0x00, 0x00, 0x2c, 0x00, 0x00, 0x00, 0x04, 0x00, 0x00, 0x00,
  0x01, 0x00, 0x00, 0x00, 0x40, 0x00, 0x00, 0x00, 0x03, 0x00, 0x00, 0x00,
  0x01, 0x00, 0x00, 0x00, 0x0c, 0x00, 0x00, 0x00, 0x63, 0x6f, 0x6e, 0x76,
  0x32, 0x64, 0x5f, 0x69, 0x6e, 0x70, 0x75, 0x74, 0x00, 0x00, 0x00, 0x00,
  0xfc, 0xff, 0xff, 0xff, 0x04, 0x00, 0x04, 0x00, 0x04, 0x00, 0x00, 0x00
 
  // Paste the data of the char array in `src/model.cc` here

};


unsigned int model_tflite_len = 12384;// Fill the int in `src/model.cc` here